const unsigned char model[] = {
  0x1c, 0x00, 0x00, 0x00, 0x54, 0x46, 0x4c, 0x33, 0x14, 0x00, 0x20, 0x00,
  0x1c, 0x00, 0x18, 0x00, 0x14, 0x00, 0x10, 0x00, 0x0c, 0x00, 0x00, 0x00,
  0x08, 0x00, 0x04, 0x00, 0x14, 0x00, 0x00, 0x00, 0x1c, 0x00, 0x00, 0x00,
  0x98, 0x00, 0x00, 0x00, 0xf0, 0x00, 0x00, 0x00, 0xec, 0x17, 0x00, 0x00,
  0xfc, 0x17, 0x00, 0x00, 0xb0, 0x1d, 0x00, 0x00, 0x03, 0x00, 0x00, 0x00,
  0x01, 0x00, 0x00, 0x00, 0x10, 0x00, 0x00, 0x00, 0x00, 0x00, 0x0a, 0x00,
  0x10, 0x00, 0x0c, 0x00, 0x08, 0x00, 0x04, 0x00, 0x0a, 0x00, 0x00, 0x00,
  0x0c, 0x00, 0x00, 0x00, 0x1c, 0x00, 0x00, 0x00, 0x3c, 0x00, 0x00, 0x00,
  0x0f, 0x00, 0x00, 0x00, 0x73, 0x65, 0x72, 0x76, 0x69, 0x6e, 0x67, 0x5f,
  0x64, 0x65, 0x66, 0x61, 0x75, 0x6c, 0x74, 0x00, 0x01, 0x00, 0x00, 0x00,
  0x04, 0x00, 0x00, 0x00, 0x90, 0xff, 0xff, 0xff, 0x0a, 0x00, 0x00, 0x00,
  0x04, 0x00, 0x00, 0x00, 0x08, 0x00, 0x00, 0x00, 0x64, 0x65, 0x6e, 0x73,
  0x65, 0x5f, 0x31, 0x31, 0x00, 0x00, 0x00, 0x00, 0x01, 0x00, 0x00, 0x00,
  0x04, 0x00, 0x00, 0x00, 0xfa, 0xe7, 0xff, 0xff, 0x04, 0x00, 0x00, 0x00,
  0x0d, 0x00, 0x00, 0x00, 0x64, 0x65, 0x6e, 0x73, 0x65, 0x5f, 0x39, 0x5f,
  0x69, 0x6e, 0x70, 0x75, 0x74, 0x00, 0x00, 0x00, 0x02, 0x00, 0x00, 0x00,
  0x34, 0x00, 0x00, 0x00, 0x04, 0x00, 0x00, 0x00, 0xdc, 0xff, 0xff, 0xff,
  0x0d, 0x00, 0x00, 0x00, 0x04, 0x00, 0x00, 0x00, 0x13, 0x00, 0x00, 0x00,
  0x43, 0x4f, 0x4e, 0x56, 0x45, 0x52, 0x53, 0x49, 0x4f, 0x4e, 0x5f, 0x4d,
  0x45, 0x54, 0x41, 0x44, 0x41, 0x54, 0x41, 0x00, 0x08, 0x00, 0x0c, 0x00,
  0x08, 0x00, 0x04, 0x00, 0x08, 0x00, 0x00, 0x00, 0x0c, 0x00, 0x00, 0x00,
  0x04, 0x00, 0x00, 0x00, 0x13, 0x00, 0x00, 0x00, 0x6d, 0x69, 0x6e, 0x5f,
  0x72, 0x75, 0x6e, 0x74, 0x69, 0x6d, 0x65, 0x5f, 0x76, 0x65, 0x72, 0x73,
  0x69, 0x6f, 0x6e, 0x00, 0x0e, 0x00, 0x00, 0x00, 0xf8, 0x16, 0x00, 0x00,
  0xf0, 0x16, 0x00, 0x00, 0xb8, 0x16, 0x00, 0x00, 0xa0, 0x16, 0x00, 0x00,
  0x68, 0x16, 0x00, 0x00, 0xa8, 0x02, 0x00, 0x00, 0x08, 0x01, 0x00, 0x00,
  0xa8, 0x00, 0x00, 0x00, 0xa0, 0x00, 0x00, 0x00, 0x98, 0x00, 0x00, 0x00,
  0x90, 0x00, 0x00, 0x00, 0x88, 0x00, 0x00, 0x00, 0x68, 0x00, 0x00, 0x00,
  0x04, 0x00, 0x00, 0x00, 0xae, 0xe8, 0xff, 0xff, 0x04, 0x00, 0x00, 0x00,
  0x54, 0x00, 0x00, 0x00, 0x0c, 0x00, 0x00, 0x00, 0x08, 0x00, 0x0e, 0x00,
  0x08, 0x00, 0x04, 0x00, 0x08, 0x00, 0x00, 0x00, 0x10, 0x00, 0x00, 0x00,
  0x24, 0x00, 0x00, 0x00, 0x00, 0x00, 0x06, 0x00, 0x08, 0x00, 0x04, 0x00,
  0x06, 0x00, 0x00, 0x00, 0x04, 0x00, 0x00, 0x00, 0x00, 0x00, 0x00, 0x00,
  0x00, 0x00, 0x0a, 0x00, 0x10, 0x00, 0x0c, 0x00, 0x08, 0x00, 0x04, 0x00,
  0x0a, 0x00, 0x00, 0x00, 0x02, 0x00, 0x00, 0x00, 0x02, 0x00, 0x00, 0x00,
  0x04, 0x00, 0x00, 0x00, 0x05, 0x00, 0x00, 0x00, 0x32, 0x2e, 0x39, 0x2e,
  0x32, 0x00, 0x00, 0x00, 0x0e, 0xe9, 0xff, 0xff, 0x04, 0x00, 0x00, 0x00,
  0x10, 0x00, 0x00, 0x00, 0x31, 0x2e, 0x35, 0x2e, 0x30, 0x00, 0x00, 0x00,
  0x00, 0x00, 0x00, 0x00, 0x00, 0x00, 0x00, 0x00, 0x24, 0xe4, 0xff, 0xff,
  0x28, 0xe4, 0xff, 0xff, 0x2c, 0xe4, 0xff, 0xff, 0x30, 0xe4, 0xff, 0xff,
  0x3a, 0xe9, 0xff, 0xff, 0x04, 0x00, 0x00, 0x00, 0x50, 0x00, 0x00, 0x00,
  0x1a, 0x1f, 0x83, 0x3e, 0x68, 0x34, 0x56, 0x3e, 0x0d, 0xb0, 0xb2, 0xbe,
  0x3a, 0x6b, 0x02, 0xbf, 0x13, 0xec, 0xb7, 0x3e, 0x09, 0x9e, 0x13, 0x3f,
  0xcd, 0xe9, 0x9e, 0xbe, 0x97, 0x8e, 0x97, 0x3e, 0x85, 0x1c, 0x06, 0x3f,
  0x1d, 0x04, 0x18, 0x3f, 0x47, 0xe1, 0x6a, 0x3e, 0x6e, 0x86, 0x01, 0x3f,
  0xaf, 0x03, 0xeb, 0xbe, 0xae, 0x7a, 0xa3, 0xbd, 0x9d, 0xc5, 0x3f, 0x3f,
  0xa7, 0x56, 0xe1, 0x3e, 0xc4, 0xa8, 0x0e, 0x3f, 0x3f, 0xaa, 0xc1, 0xbe,
  0xdb, 0xe2, 0x84, 0x3d, 0x1b, 0x1b, 0x50, 0xbe, 0x96, 0xe9, 0xff, 0xff,
  0x04, 0x00, 0x00, 0x00, 0x90, 0x01, 0x00, 0x00, 0x10, 0xd3, 0x07, 0xb7,
  0xb0, 0x2f, 0x29, 0x36, 0x7b, 0x0a, 0x13, 0xb8, 0xe2, 0xcc, 0x45, 0xb8,
  0xa6, 0x96, 0x60, 0xb8, 0xfc, 0xf8, 0x90, 0x38, 0xb7, 0x2f, 0x81, 0xb8,
  0x33, 0xa5, 0x0c, 0x39, 0x53, 0x0d, 0xec, 0x38, 0x4c, 0xc8, 0xb1, 0xb9,
  0x02, 0x52, 0xba, 0x3e, 0xf8, 0xc2, 0xc7, 0xbd, 0xc8, 0x95, 0x96, 0x3e,
  0x6c, 0x59, 0xc5, 0x38, 0xde, 0xb1, 0x9e, 0xb8, 0x88, 0x52, 0x1c, 0x39,
  0x02, 0xfc, 0x50, 0xb7, 0x20, 0x0e, 0x6d, 0xb6, 0x53, 0x0e, 0x21, 0xb8,
  0x15, 0x1c, 0x1b, 0xb8, 0x28, 0xe2, 0x71, 0x3e, 0x3e, 0x9f, 0xb4, 0x3e,
  0x29, 0xe3, 0x2f, 0x3e, 0x40, 0xdd, 0x13, 0xb8, 0x9d, 0xb5, 0xa5, 0xb8,
  0x56, 0x55, 0x6f, 0x39, 0x70, 0xf6, 0x1c, 0x3e, 0x84, 0x78, 0xb3, 0x39,
  0xa2, 0xa8, 0xb1, 0x39, 0x24, 0x07, 0x94, 0x38, 0xc2, 0x29, 0xd7, 0x3d,
  0xd7, 0x5b, 0x9a, 0xbe, 0x01, 0x3f, 0x6c, 0x3e, 0xf2, 0x33, 0xf3, 0xbd,
  0x71, 0xd0, 0x01, 0xb9, 0xa2, 0xa8, 0x75, 0xb9, 0x8b, 0x87, 0x88, 0x3d,
  0x37, 0xd9, 0xf6, 0x39, 0x08, 0x10, 0xd8, 0x37, 0x3e, 0x38, 0x9e, 0x39,
  0x37, 0x80, 0x1d, 0x3f, 0xfe, 0x03, 0x6f, 0x37, 0x50, 0x27, 0x4d, 0x3e,
  0xd5, 0xb8, 0x55, 0xb7, 0xb2, 0xad, 0x40, 0xb8, 0xe4, 0xe5, 0xb5, 0xb8,
  0x75, 0xb8, 0x8f, 0xbe, 0x1b, 0x4d, 0x15, 0xb9, 0x58, 0x93, 0x89, 0xb7,
  0x3f, 0xb7, 0xd5, 0xb8, 0x3f, 0x4c, 0x87, 0x3d, 0xc2, 0x10, 0x07, 0xbd,
  0x9d, 0xa3, 0xaa, 0xbd, 0x94, 0x6e, 0x19, 0x39, 0x90, 0xe3, 0x83, 0x38,
  0x84, 0x4a, 0x93, 0x39, 0x81, 0xcc, 0x92, 0x38, 0xc9, 0xe9, 0x6d, 0x39,
  0xbc, 0x39, 0xee, 0x38, 0xb6, 0x3a, 0x39, 0xb8, 0x66, 0x14, 0xbc, 0x3e,
  0x92, 0x23, 0x37, 0xbd, 0xb1, 0x7d, 0x9a, 0x3d, 0x22, 0x02, 0x81, 0xbe,
  0x98, 0x9d, 0x09, 0xb9, 0xb0, 0x4b, 0x59, 0xb7, 0xf2, 0x7b, 0x5e, 0x37,
  0x06, 0xc9, 0x80, 0x38, 0x8c, 0x40, 0x4f, 0xb8, 0xe2, 0x09, 0x31, 0x38,
  0xa3, 0xf5, 0x84, 0xbe, 0xf4, 0xeb, 0xd0, 0x3d, 0xe4, 0x9f, 0xd5, 0x3e,
  0x33, 0xa7, 0x0b, 0x3e, 0x5c, 0x4d, 0x80, 0xb9, 0x8b, 0x4a, 0xec, 0x38,
  0xc4, 0x08, 0x11, 0x3e, 0x6e, 0x4c, 0x9a, 0x38, 0x44, 0x38, 0xd9, 0xb8,
  0x0f, 0x1c, 0x07, 0xb9, 0x50, 0x79, 0x30, 0xbe, 0x2f, 0x67, 0xc7, 0x37,
  0xf7, 0xf4, 0xb2, 0x3e, 0xb8, 0x5d, 0xf0, 0x3e, 0x9c, 0x53, 0x04, 0xb9,
  0x00, 0x8e, 0x84, 0xb4, 0xc7, 0x21, 0x8f, 0x3e, 0x32, 0x15, 0x49, 0x38,
  0xa6, 0x82, 0xcd, 0x38, 0x15, 0x61, 0x20, 0x39, 0x32, 0xfb, 0x0d, 0xbe,
  0x69, 0x29, 0x09, 0x3f, 0x84, 0x2c, 0x47, 0x3e, 0x62, 0x13, 0x9b, 0x3c,
  0xb2, 0x24, 0xeb, 0x39, 0x28, 0x48, 0x65, 0x37, 0xe4, 0x43, 0x44, 0x3e,
  0x30, 0xfc, 0xba, 0xb8, 0xce, 0x49, 0xe6, 0xb8, 0xdf, 0x99, 0x5a, 0xbe,
  0x32, 0xeb, 0xff, 0xff, 0x04, 0x00, 0x00, 0x00, 0xb0, 0x13, 0x00, 0x00,
  0x20, 0x9d, 0x28, 0x3d, 0xfe, 0xe8, 0x91, 0x3d, 0x9a, 0xa5, 0xb5, 0x3d,
  0x48, 0xd5, 0x4a, 0x3e, 0xaa, 0xad, 0x22, 0x3b, 0x53, 0x09, 0x96, 0xbc,
  0x28, 0x42, 0x71, 0x3e, 0x38, 0xb4, 0xec, 0x3d, 0x87, 0xbe, 0x88, 0xbc,
  0x80, 0xa0, 0xbb, 0x3d, 0xd2, 0x62, 0x8e, 0x3d, 0xc1, 0x71, 0xbe, 0xbd,
  0x58, 0xfd, 0x61, 0x3e, 0x0a, 0x2b, 0xc7, 0xbd, 0x30, 0x00, 0x2a, 0xbe,
  0x1f, 0xdf, 0x12, 0xbe, 0x97, 0x23, 0xa2, 0x3d, 0x9c, 0xf6, 0x19, 0x3e,
  0x69, 0xc9, 0x34, 0x3e, 0x64, 0x84, 0x18, 0xbe, 0xb4, 0x96, 0xe0, 0x3d,
  0x87, 0xf1, 0x23, 0x3e, 0xcc, 0xaf, 0x82, 0x3d, 0x7c, 0xce, 0xa0, 0x3d,
  0x59, 0xe0, 0xeb, 0x3a, 0x1e, 0x45, 0x6d, 0x3e, 0x44, 0x65, 0x17, 0x3d,
  0x1b, 0x8b, 0x52, 0xbd, 0xd3, 0xa7, 0x58, 0x3d, 0xc1, 0x24, 0xe4, 0xbd,
  0x05, 0xe2, 0x86, 0xbd, 0x3b, 0x2f, 0x66, 0xbe, 0xa4, 0xc4, 0x70, 0x3d,
  0x36, 0xf5, 0x45, 0x3e, 0xa0, 0x25, 0x49, 0x3d, 0xe6, 0xbf, 0xb4, 0xbd,
  0x70, 0x19, 0xae, 0xbc, 0x2d, 0xd9, 0x3d, 0x3c, 0x06, 0x5a, 0x10, 0x3e,
  0xfb, 0xc5, 0x58, 0x3d, 0x61, 0xd0, 0x47, 0xbd, 0xe1, 0x01, 0xca, 0x3c,
  0x6a, 0xc5, 0x9d, 0xbd, 0x82, 0xd5, 0xc9, 0x3d, 0x5e, 0x08, 0x0d, 0x3d,
  0x09, 0x5b, 0x8b, 0x3e, 0xd8, 0x75, 0x0c, 0xbe, 0x6d, 0x07, 0x0b, 0x3d,
  0xcd, 0xab, 0x05, 0x3d, 0x7b, 0x78, 0xb8, 0xbc, 0x15, 0x20, 0x73, 0x3d,
  0x6a, 0xf6, 0x93, 0x3e, 0x10, 0xc6, 0x74, 0xbd, 0x42, 0x80, 0xa9, 0x3d,
  0x01, 0x66, 0x43, 0xbd, 0xe6, 0xe0, 0x25, 0x3d, 0xbe, 0x1c, 0xf4, 0x3d,
  0x83, 0x81, 0x18, 0xbd, 0x72, 0x64, 0x95, 0x3d, 0x8b, 0xed, 0x80, 0x3e,
  0x8a, 0xb0, 0xa5, 0xbd, 0x91, 0x1c, 0x98, 0x3c, 0xbd, 0xd8, 0x46, 0x3e,
  0xd5, 0xf2, 0x47, 0x3e, 0x27, 0x75, 0xd1, 0xbd, 0xfe, 0xaf, 0x39, 0x3d,
  0x31, 0x02, 0x03, 0x3d, 0x2e, 0x3a, 0x73, 0xbe, 0xf5, 0xd1, 0xbd, 0xbd,
  0x37, 0x8c, 0x6e, 0x3e, 0x9f, 0x34, 0x1a, 0x3e, 0x11, 0xc4, 0x05, 0x3e,
  0x55, 0x14, 0x81, 0x3e, 0xbe, 0x62, 0xa7, 0xbd, 0x85, 0x3f, 0x0e, 0xbe,
  0xe2, 0x72, 0x00, 0xbe, 0x53, 0xef, 0x57, 0xbe, 0xb9, 0xbc, 0x76, 0x3e,
  0xcb, 0x4a, 0x13, 0x3e, 0xf6, 0x8d, 0xf5, 0x3d, 0xcd, 0xf6, 0x11, 0x3e,
  0x49, 0xa7, 0xd1, 0x3d, 0x39, 0xd7, 0xf3, 0x3d, 0xb8, 0x7d, 0xec, 0xbd,
  0xe1, 0x6c, 0x00, 0xbd, 0x04, 0x0a, 0x99, 0xbe, 0x38, 0x94, 0x15, 0x3e,
  0xe0, 0x0a, 0x90, 0x3e, 0xd5, 0x5a, 0x22, 0x3e, 0x3c, 0x16, 0x31, 0xbd,
  0xab, 0x91, 0xc7, 0x3e, 0x19, 0x14, 0xc6, 0x3d, 0x20, 0xa3, 0x0f, 0xbe,
  0x80, 0x47, 0x1a, 0x3d, 0xc6, 0x35, 0x0b, 0xbe, 0xdb, 0xe2, 0xe1, 0x3c,
  0x5e, 0x49, 0x6c, 0x3d, 0x6f, 0x34, 0x17, 0x3e, 0x76, 0xcf, 0x7f, 0x3e,
  0xbd, 0x7b, 0xa6, 0x3e, 0x7a, 0x83, 0x60, 0xbe, 0x0f, 0xf7, 0x8b, 0x3d,
  0x5e, 0x38, 0xe2, 0xbd, 0xc5, 0x76, 0x91, 0xbe, 0xef, 0x2b, 0x55, 0x3e,
  0x8d, 0x17, 0xa0, 0xbc, 0xc1, 0x09, 0x2b, 0xbe, 0xf6, 0x95, 0xa7, 0x3d,
  0x51, 0x34, 0x6a, 0x3e, 0x8e, 0xf1, 0x1a, 0xbe, 0x6f, 0x62, 0x12, 0x3d,
  0xbd, 0xf8, 0xeb, 0x3d, 0x6a, 0x17, 0xca, 0x3d, 0xc4, 0x88, 0xc1, 0xbc,
  0xba, 0x35, 0x6a, 0x3e, 0x8c, 0x58, 0x8c, 0xbd, 0xc2, 0x6c, 0x01, 0xbe,
  0x60, 0x23, 0x69, 0x3e, 0xe2, 0xd1, 0x82, 0xbd, 0x37, 0xb1, 0x34, 0xbd,
  0x0e, 0xd1, 0xe9, 0x3d, 0x63, 0x42, 0x56, 0xbd, 0x55, 0x5d, 0x55, 0x3e,
  0x75, 0x8a, 0x69, 0x3e, 0xa5, 0x81, 0xdb, 0xbc, 0xcd, 0xaf, 0x74, 0xbd,
  0x36, 0x91, 0xb8, 0x3c, 0xf6, 0x27, 0x89, 0xbb, 0x4f, 0xf4, 0x49, 0x3e,
  0xf4, 0x7c, 0x00, 0x3e, 0x67, 0x31, 0xd7, 0xbd, 0x98, 0xca, 0xa9, 0xbc,
  0xb6, 0x56, 0x3d, 0x3e, 0x33, 0x7c, 0x8f, 0x3d, 0x86, 0x08, 0x27, 0x3e,
  0xdf, 0xc9, 0x2f, 0x3e, 0xf7, 0xf7, 0x2a, 0x3e, 0x42, 0x2b, 0xea, 0xbc,
  0xa5, 0x81, 0x3e, 0xbe, 0x8e, 0xe1, 0x2f, 0xbd, 0xdc, 0xd5, 0xce, 0xbd,
  0x8d, 0x22, 0x4d, 0x3d, 0x3a, 0x4c, 0x93, 0xbd, 0x63, 0x46, 0x35, 0x3e,
  0x98, 0xe9, 0x17, 0xbe, 0xd4, 0x4e, 0x4b, 0x3d, 0x5f, 0x21, 0xf5, 0xbd,
  0xee, 0x43, 0xe5, 0x3d, 0x72, 0xaf, 0xa5, 0xbd, 0x35, 0x9e, 0xa0, 0xbd,
  0x6c, 0x9b, 0x8a, 0x3d, 0xee, 0x87, 0x46, 0xbe, 0x52, 0xdd, 0x57, 0x3e,
  0x16, 0xc5, 0xfd, 0xbd, 0x75, 0xf9, 0xb6, 0xbc, 0x4d, 0x51, 0x24, 0xbe,
  0xfe, 0xc4, 0x11, 0x3e, 0x13, 0x1c, 0xbe, 0x3d, 0xe4, 0x4d, 0x7b, 0x3d,
  0xfe, 0x72, 0x5a, 0xbe, 0xd5, 0x06, 0x94, 0xbd, 0xc1, 0xd6, 0x79, 0x3d,
  0x17, 0xfd, 0x2c, 0x3e, 0x92, 0xf8, 0x75, 0x3e, 0x49, 0xcd, 0x03, 0xbe,
  0xda, 0x3c, 0xa6, 0x3d, 0xde, 0xb8, 0x33, 0x3e, 0x60, 0x00, 0xcc, 0x3c,
  0x8f, 0x27, 0x2a, 0xbe, 0x00, 0xcf, 0xee, 0x3d, 0x9f, 0xd6, 0x9b, 0xbd,
  0xb3, 0xea, 0x27, 0xbe, 0x41, 0x7d, 0x1e, 0xbe, 0xcb, 0x72, 0xd4, 0x3d,
  0xb2, 0x67, 0x51, 0x3d, 0xfc, 0x90, 0x9c, 0xbd, 0x1b, 0x6b, 0xa3, 0x3d,
  0x51, 0x89, 0x3d, 0xbe, 0x0b, 0x09, 0xdc, 0x3d, 0x80, 0xc3, 0x23, 0xbe,
  0x0c, 0x0c, 0xab, 0xbd, 0x0f, 0x38, 0x9f, 0x3d, 0x6d, 0x42, 0x2a, 0xbe,
  0xea, 0x5d, 0x5f, 0x3e, 0xd6, 0xf1, 0x0d, 0x3e, 0x95, 0xd6, 0xe9, 0xbd,
  0x3d, 0x7e, 0xf6, 0x3b, 0x7f, 0x79, 0x04, 0x3d, 0x40, 0x90, 0xb2, 0xbd,
  0xd0, 0xfc, 0x4a, 0xbe, 0xae, 0x3b, 0x6f, 0x3d, 0xa4, 0x45, 0x72, 0x3e,
  0x92, 0x28, 0x57, 0x3d, 0xaa, 0xaa, 0x2b, 0x3d, 0x0e, 0xfb, 0x45, 0xbe,
  0xa6, 0x25, 0x8f, 0xbe, 0x5f, 0x6e, 0xa2, 0xbd, 0x3d, 0x98, 0xa6, 0x3d,
  0xfd, 0x00, 0x1d, 0x3c, 0x97, 0x62, 0x92, 0x3d, 0xc5, 0x1b, 0x93, 0x3b,
  0xc5, 0xd4, 0x32, 0x3e, 0x00, 0xce, 0xa6, 0x3e, 0x7a, 0x60, 0x64, 0xbe,
  0xd9, 0x08, 0x6b, 0xbe, 0x7e, 0x72, 0x4f, 0x3e, 0xb3, 0x2a, 0x53, 0x3e,
  0x6d, 0x5c, 0x74, 0xbe, 0x4a, 0x27, 0x46, 0x3e, 0xf9, 0x60, 0x5b, 0x3e,
  0xd8, 0xca, 0xb9, 0x3b, 0xd1, 0x13, 0x0b, 0x3d, 0x8b, 0x73, 0xce, 0x3d,
  0x52, 0x2e, 0x47, 0x3d, 0x1d, 0x50, 0x3f, 0x3d, 0x7d, 0xd2, 0x2a, 0x3d,
  0xd4, 0xb9, 0xd6, 0xbd, 0xd5, 0x6b, 0x2b, 0x3e, 0x2e, 0x79, 0x09, 0x3e,
  0x4c, 0x49, 0x35, 0x3e, 0xfd, 0x5e, 0x3f, 0x3e, 0x01, 0x7f, 0x13, 0x3e,
  0xd6, 0x9e, 0x66, 0xbe, 0xea, 0xa2, 0xb4, 0xbc, 0xd5, 0x56, 0x0b, 0xbe,
  0x4d, 0x33, 0xfa, 0xbd, 0x0d, 0x49, 0x32, 0x3d, 0x21, 0xd8, 0xf0, 0x3d,
  0xc5, 0x3b, 0x00, 0x3d, 0x5e, 0x44, 0x09, 0x3d, 0xf7, 0x6e, 0xec, 0x3d,
  0xec, 0x14, 0x86, 0xbe, 0xea, 0xe0, 0x05, 0xbe, 0x7f, 0x16, 0x2f, 0x3e,
  0x13, 0x55, 0x9f, 0xbe, 0x8b, 0x14, 0x2e, 0x3e, 0x7c, 0x0a, 0xce, 0xbd,
  0x83, 0xf9, 0x7d, 0x3e, 0x66, 0x6a, 0xee, 0x3d, 0x09, 0xa4, 0xf8, 0x3d,
  0x2e, 0x27, 0x30, 0xbe, 0xfe, 0x6e, 0x82, 0x3d, 0xfb, 0xf3, 0x2a, 0xbd,
  0xbd, 0x62, 0x91, 0x3d, 0xd4, 0xcf, 0x6a, 0xbd, 0x7a, 0x50, 0x98, 0xbd,
  0xf1, 0x66, 0x73, 0x3e, 0xec, 0xf1, 0xb8, 0x3d, 0x88, 0x74, 0xee, 0x3d,
  0xc5, 0xe3, 0x32, 0xbe, 0x8b, 0x45, 0x02, 0x3e, 0xfd, 0xf8, 0x5b, 0xbe,
  0xc9, 0x37, 0x36, 0x3e, 0xa1, 0x79, 0xe2, 0xbc, 0x92, 0x94, 0x80, 0x3e,
  0x6e, 0x00, 0xf0, 0xbd, 0x6d, 0x71, 0x8f, 0xbd, 0x42, 0x09, 0x01, 0xbd,
  0xf3, 0x28, 0x61, 0x3e, 0x2a, 0xab, 0xd5, 0xbd, 0x58, 0x7c, 0x5b, 0x3e,
  0x8e, 0x2b, 0x48, 0xbc, 0xcf, 0xe4, 0x83, 0x3e, 0x8c, 0x2c, 0x80, 0x3d,
  0x44, 0xee, 0x8a, 0x3e, 0x9b, 0xe0, 0x84, 0x3d, 0xd4, 0x6c, 0xa6, 0x3d,
  0x5f, 0x0b, 0x1a, 0x3d, 0x22, 0xce, 0x15, 0xbd, 0x12, 0x50, 0xd1, 0x3c,
  0x64, 0xaf, 0xaa, 0x3d, 0x55, 0x40, 0x56, 0x3e, 0x28, 0x56, 0x8d, 0xbd,
  0xfc, 0xbb, 0x86, 0x3d, 0x40, 0x9a, 0xb6, 0x3d, 0x66, 0x9d, 0x06, 0xbd,
  0xc2, 0x7e, 0x21, 0x3d, 0x83, 0xfb, 0xab, 0x3c, 0x2c, 0x4a, 0x19, 0x3e,
  0x0c, 0x2c, 0x15, 0xbd, 0x40, 0xa4, 0x05, 0xbe, 0xd4, 0x17, 0x42, 0xbd,
  0xf6, 0x92, 0x21, 0x3e, 0x17, 0x5c, 0x02, 0xbd, 0x41, 0x08, 0xab, 0xbd,
  0x56, 0xc6, 0x36, 0x3d, 0x3d, 0x43, 0x06, 0xbe, 0x2b, 0x2f, 0x01, 0xbe,
  0x96, 0x7b, 0x10, 0x3e, 0xb4, 0x16, 0x57, 0x3e, 0x24, 0x76, 0xe3, 0xbd,
  0x70, 0xbd, 0x36, 0xba, 0x30, 0xae, 0xc8, 0xbd, 0x03, 0x1f, 0x53, 0xbd,
  0x23, 0x3e, 0xbc, 0xbd, 0xeb, 0xbb, 0xb4, 0x3d, 0x71, 0x67, 0x66, 0x3e,
  0x2b, 0xfe, 0x31, 0xbe, 0x31, 0x44, 0x93, 0x3e, 0x13, 0x24, 0x51, 0xbd,
  0x54, 0xf6, 0xbb, 0x3d, 0xe6, 0x1d, 0x56, 0x3e, 0x2e, 0xb8, 0x15, 0xbe,
  0x23, 0xfc, 0xd9, 0xbd, 0x58, 0x9e, 0x7c, 0x3e, 0x28, 0xff, 0xa1, 0x3d,
  0xf7, 0xc0, 0x0d, 0xbd, 0xb8, 0xf2, 0xde, 0x3d, 0xec, 0x8e, 0xef, 0x3d,
  0x32, 0x7d, 0x58, 0x3c, 0x26, 0x20, 0xbc, 0x3d, 0x84, 0xf8, 0xef, 0xbb,
  0xed, 0x0a, 0x12, 0xbe, 0xf3, 0x73, 0xae, 0xbb, 0x1f, 0x84, 0x18, 0x3e,
  0x2d, 0x66, 0x90, 0xbd, 0xd8, 0xde, 0x31, 0x3e, 0x51, 0xf1, 0x74, 0xbd,
  0xfe, 0x81, 0x89, 0x3e, 0x24, 0xce, 0xa3, 0xbd, 0x05, 0x38, 0x1b, 0x3e,
  0x1a, 0x06, 0xb8, 0x3d, 0x96, 0x79, 0x25, 0x3d, 0xde, 0x0e, 0x6c, 0x3d,
  0x2f, 0x44, 0x22, 0x3e, 0x6d, 0xd9, 0x07, 0x3d, 0xf9, 0x25, 0xe3, 0xbd,
  0x8b, 0x28, 0x11, 0x3e, 0x13, 0xce, 0x06, 0x3e, 0x69, 0x32, 0x7a, 0x3e,
  0xff, 0x0f, 0xbf, 0x3d, 0x7c, 0x50, 0x56, 0x3d, 0x83, 0xf1, 0x0b, 0x3e,
  0xc3, 0x8c, 0x30, 0xbe, 0x6b, 0x88, 0x96, 0x3e, 0x23, 0x3f, 0x6f, 0x3e,
  0x1f, 0x04, 0x52, 0xbd, 0xe4, 0xa9, 0x8d, 0x3e, 0x5f, 0x55, 0xe5, 0x3c,
  0x76, 0x09, 0xb6, 0x3d, 0xb2, 0x98, 0x0b, 0xbe, 0x49, 0x4b, 0x1d, 0xbd,
  0xcd, 0x67, 0x45, 0xbe, 0xb4, 0xf1, 0x4c, 0x3e, 0xfa, 0x76, 0xf8, 0xbc,
  0x1c, 0x36, 0x46, 0x3b, 0x6a, 0x37, 0xbd, 0x3d, 0x87, 0xfd, 0x8e, 0x3b,
  0x20, 0x12, 0xdb, 0xbd, 0x0c, 0x2a, 0x72, 0x3e, 0x9e, 0xea, 0xcd, 0xbc,
  0x8f, 0xad, 0x27, 0x3d, 0x68, 0x34, 0x17, 0x3c, 0x5d, 0x00, 0xaf, 0x3d,
  0xee, 0xbd, 0x01, 0xbe, 0xd3, 0xdc, 0xdd, 0x3d, 0xe3, 0x8e, 0xf5, 0x3d,
  0x48, 0xa0, 0x5a, 0xbe, 0xd5, 0x31, 0x22, 0x3e, 0x5c, 0x0b, 0xf8, 0xbd,
  0x85, 0xf9, 0x10, 0xbd, 0x0f, 0x8f, 0x24, 0xbd, 0x67, 0x8f, 0x68, 0x3e,
  0x96, 0xf0, 0x73, 0x3e, 0xd4, 0xa4, 0x2c, 0xbb, 0x25, 0x2a, 0x95, 0x3d,
  0x2e, 0xa3, 0xd4, 0x3d, 0x7b, 0x4b, 0x46, 0x3d, 0x2c, 0xfb, 0xdf, 0x3d,
  0x64, 0x28, 0xa6, 0x3c, 0x94, 0xe6, 0x40, 0x3e, 0x3c, 0x00, 0x18, 0xbd,
  0xf7, 0xa3, 0x89, 0x3e, 0x4f, 0x9e, 0x01, 0x3e, 0x6c, 0xa1, 0x0e, 0xbe,
  0xd2, 0xa7, 0x15, 0xbd, 0x2c, 0x62, 0x84, 0x3e, 0x02, 0xe0, 0x54, 0x3e,
  0xab, 0x12, 0x5e, 0x3e, 0x54, 0xc9, 0xfc, 0x3d, 0xa2, 0x7d, 0x15, 0x3e,
  0xde, 0x43, 0x75, 0x3e, 0xbd, 0xab, 0x1f, 0x3e, 0x46, 0x39, 0x7b, 0x3d,
  0x94, 0x83, 0xbc, 0x3b, 0x75, 0xbe, 0x82, 0x3d, 0xd6, 0x4b, 0xcd, 0xbd,
  0xf9, 0xd8, 0x8b, 0xbd, 0xd3, 0xd1, 0x4e, 0x3e, 0x97, 0x9f, 0xfd, 0x3d,
  0x98, 0xc1, 0x72, 0xbd, 0x37, 0xe2, 0x88, 0x3e, 0x38, 0xcb, 0xbc, 0xbc,
  0xe8, 0xab, 0xbb, 0x3d, 0x06, 0xae, 0x24, 0x3d, 0xb3, 0x66, 0x17, 0xbe,
  0xb4, 0x62, 0x1c, 0x3e, 0x32, 0xb0, 0xed, 0xbd, 0x1d, 0x77, 0x04, 0x3d,
  0x2d, 0x14, 0x84, 0xbc, 0xf8, 0x32, 0x34, 0x3e, 0x20, 0xb0, 0xd9, 0xbd,
  0x45, 0xcb, 0xcb, 0x3c, 0xb2, 0xfe, 0xaa, 0xbd, 0x93, 0x0e, 0x2f, 0x3e,
  0xd8, 0xd6, 0xbd, 0xbd, 0x16, 0x2f, 0x95, 0x3d, 0x06, 0x3e, 0x24, 0xbe,
  0xd5, 0x81, 0xce, 0x3d, 0x8b, 0x56, 0xc1, 0xbd, 0x6a, 0x1d, 0xea, 0x3c,
  0x2e, 0xdc, 0x32, 0x3d, 0x82, 0x4c, 0xbd, 0xbd, 0x79, 0xe7, 0xbf, 0x3d,
  0x3a, 0x55, 0xf2, 0x3d, 0xce, 0xae, 0x49, 0x3e, 0x1f, 0xce, 0x23, 0xbc,
  0x24, 0x01, 0x04, 0xbe, 0xf8, 0x32, 0xd5, 0x3c, 0xe6, 0x8e, 0xcb, 0x3d,
  0x3a, 0x59, 0x80, 0xbb, 0x9c, 0xe0, 0x30, 0x3e, 0x52, 0x0c, 0x60, 0x3e,
  0xc8, 0xb4, 0xad, 0x3c, 0xea, 0x50, 0x29, 0x3e, 0x20, 0x07, 0xd9, 0x3d,
  0x77, 0x30, 0x0d, 0xbe, 0xb5, 0x94, 0x37, 0x3d, 0x1f, 0xb9, 0x98, 0xbd,
  0xce, 0xcd, 0x3e, 0xbe, 0xf5, 0x76, 0x99, 0xbd, 0xbe, 0x6e, 0xfc, 0x3d,
  0xa9, 0x3d, 0x41, 0xbe, 0x1a, 0x74, 0x0c, 0x3d, 0xd8, 0xc8, 0xc0, 0x3c,
  0x4f, 0x4d, 0x47, 0x3e, 0x10, 0xd6, 0x4f, 0x3e, 0x3a, 0xaf, 0x4a, 0xbe,
  0x92, 0xce, 0xb0, 0x3d, 0x7b, 0xe4, 0xef, 0x3d, 0x62, 0x2e, 0x0c, 0xbd,
  0xc4, 0x87, 0xd5, 0xbb, 0x57, 0x07, 0xf5, 0xb9, 0x38, 0xca, 0x4b, 0x3e,
  0x88, 0x7b, 0xc7, 0xbd, 0x0a, 0x1b, 0xb4, 0x3e, 0x01, 0x6e, 0x32, 0xbc,
  0x99, 0x5b, 0x49, 0xbe, 0x0f, 0x29, 0x1f, 0x3e, 0x14, 0x16, 0xf4, 0xbd,
  0x45, 0x38, 0x4d, 0xbe, 0x7d, 0x99, 0xea, 0x3d, 0x91, 0xa2, 0x15, 0x3e,
  0x4f, 0xad, 0x87, 0xbd, 0xd1, 0x86, 0x20, 0xbd, 0x16, 0xc3, 0x2a, 0xbe,
  0xcb, 0xfa, 0x08, 0xbe, 0x13, 0xee, 0xf6, 0x3b, 0xab, 0xe7, 0xb2, 0x3d,
  0x83, 0x42, 0x6d, 0xbe, 0x47, 0xcc, 0xf3, 0x3c, 0xcd, 0xee, 0xfb, 0x3c,
  0x4e, 0xaa, 0xe7, 0xbc, 0x8e, 0xb2, 0x5e, 0x3e, 0xa0, 0x87, 0x9c, 0x3d,
  0x7d, 0x2e, 0x97, 0xbd, 0xf0, 0xf9, 0x40, 0x3e, 0x1c, 0x97, 0xa1, 0x3d,
  0x54, 0x3c, 0xcb, 0xbd, 0xae, 0x12, 0x94, 0x3c, 0xde, 0xb5, 0xc2, 0x3d,
  0xfd, 0xe9, 0xaa, 0xb9, 0xf2, 0x1d, 0xac, 0x3e, 0x5c, 0x31, 0x32, 0x3d,
  0x65, 0xca, 0x01, 0xbe, 0xc8, 0x6b, 0x15, 0xbd, 0x7b, 0x4a, 0x22, 0xbe,
  0xda, 0xab, 0x1c, 0xbe, 0x52, 0x2d, 0x5f, 0x3e, 0x8c, 0xee, 0xd7, 0xbc,
  0x71, 0x34, 0x57, 0x3c, 0xf5, 0x8c, 0x6e, 0x3e, 0xd4, 0xe1, 0x7a, 0xbe,
  0x3a, 0xe2, 0x8e, 0x3d, 0xfa, 0xd3, 0xa4, 0xbd, 0x96, 0x97, 0x12, 0xbe,
  0x39, 0xa0, 0x8a, 0xbe, 0x84, 0x35, 0x74, 0x3b, 0x9a, 0x81, 0x31, 0x3e,
  0x50, 0xb2, 0x7d, 0x3d, 0x7b, 0x17, 0xda, 0x3d, 0x94, 0xa0, 0x20, 0x3d,
  0x6c, 0xc8, 0x10, 0xbe, 0xd5, 0x42, 0xc9, 0x3d, 0x89, 0x6d, 0xf4, 0x3d,
  0x42, 0xfa, 0x3c, 0xbd, 0xc9, 0xa6, 0x20, 0x3e, 0xc0, 0x4c, 0x29, 0xbe,
  0xba, 0x5e, 0x01, 0xbe, 0x02, 0xf8, 0x3c, 0xbc, 0xf2, 0xd7, 0xea, 0x3c,
  0x28, 0x2b, 0xdb, 0xbd, 0x0d, 0x38, 0x0d, 0x3e, 0xe0, 0xe5, 0x63, 0xbd,
  0x7a, 0x7a, 0xac, 0x3d, 0x00, 0xba, 0x0a, 0x3b, 0x98, 0x31, 0xdd, 0xbd,
  0xc0, 0xf8, 0x19, 0x3d, 0x90, 0x87, 0x13, 0xbe, 0x10, 0xe7, 0xff, 0x3c,
  0xf8, 0x7a, 0x84, 0xbc, 0xc5, 0x8f, 0x21, 0x3e, 0x9a, 0x67, 0x0f, 0xbe,
  0x2c, 0x0a, 0x78, 0x3d, 0xbe, 0x9e, 0xf9, 0x3d, 0xb2, 0x13, 0x99, 0xbd,
  0x9c, 0x17, 0x44, 0x3d, 0x5c, 0x2d, 0x7c, 0x3d, 0xa2, 0x14, 0x29, 0xbe,
  0xa2, 0xf4, 0xb2, 0xbd, 0xe6, 0x14, 0xaa, 0x3d, 0xe8, 0xc3, 0xee, 0xbd,
  0x9b, 0x9a, 0x2c, 0x3e, 0x0d, 0xfb, 0xd6, 0xbd, 0x8a, 0x92, 0x99, 0x3d,
  0x63, 0x88, 0x51, 0x3e, 0x1e, 0xae, 0xa8, 0x3d, 0x4a, 0x52, 0x86, 0x3d,
  0xd2, 0xa8, 0x09, 0xbe, 0x26, 0x84, 0xef, 0xbd, 0x16, 0x62, 0x8a, 0x3d,
  0xae, 0x76, 0xb0, 0x3d, 0x0d, 0x5a, 0x38, 0xbe, 0x0b, 0x3c, 0x40, 0x3e,
  0xe0, 0x4e, 0x3a, 0x3c, 0xc0, 0x77, 0xea, 0x3b, 0xb6, 0x39, 0xf4, 0xbd,
  0xd5, 0xee, 0x1f, 0x3e, 0x02, 0xbc, 0xe2, 0xbd, 0x50, 0xf3, 0x6f, 0xbd,
  0x20, 0xe8, 0x83, 0x3c, 0x6a, 0x3b, 0x25, 0xbe, 0x62, 0x5c, 0xee, 0xbd,
  0xf8, 0x4a, 0x87, 0xbc, 0x03, 0xfe, 0x14, 0x3e, 0x1c, 0x12, 0xf7, 0xbd,
  0x9a, 0x16, 0xa1, 0xbd, 0x6e, 0xbb, 0xbd, 0xbd, 0x01, 0xe8, 0x4f, 0x3e,
  0x5e, 0x1c, 0xe0, 0x3d, 0x08, 0xa7, 0xdf, 0xbc, 0x5d, 0x3e, 0x4d, 0x3e,
  0x08, 0x7e, 0x94, 0xbc, 0x08, 0xe9, 0x52, 0xbe, 0x50, 0x48, 0x94, 0xbd,
  0xb4, 0x05, 0x7d, 0x3d, 0x5e, 0x9f, 0x38, 0xbe, 0xf2, 0xf7, 0xb8, 0x3d,
  0xce, 0x29, 0x9d, 0x3d, 0x80, 0x8b, 0x83, 0x3a, 0x47, 0x45, 0x11, 0xbe,
  0xf3, 0xa9, 0xf2, 0xbd, 0x21, 0x13, 0x10, 0xbe, 0x86, 0xa9, 0xb6, 0xbd,
  0x80, 0x25, 0x9b, 0xbd, 0x2e, 0xf3, 0xef, 0xbd, 0xe8, 0x37, 0x9d, 0xbd,
  0xa0, 0x50, 0x89, 0x3b, 0x75, 0x3c, 0x51, 0x3e, 0xcd, 0x17, 0x01, 0x3e,
  0x7a, 0x4f, 0xb5, 0x3d, 0x51, 0xcf, 0x1f, 0x3e, 0xca, 0x9b, 0xf7, 0x3d,
  0x91, 0x79, 0x03, 0xbe, 0xdd, 0x7d, 0x1a, 0x3e, 0xa1, 0x46, 0x51, 0xbe,
  0xb0, 0x5d, 0xdb, 0xbc, 0xe0, 0xca, 0xe7, 0x3c, 0x20, 0x47, 0xce, 0x3b,
  0xc6, 0x16, 0x55, 0xbe, 0xd2, 0xfe, 0x0f, 0xbe, 0x32, 0xef, 0x8d, 0x3d,
  0x5e, 0x39, 0xd4, 0x3d, 0xb1, 0x18, 0x24, 0xbe, 0x78, 0x8d, 0x2f, 0xbe,
  0x4e, 0x1c, 0x8e, 0x3d, 0xab, 0xe9, 0x54, 0x3e, 0xaa, 0xb1, 0xaa, 0xbd,
  0x70, 0x82, 0x6b, 0x3c, 0xf1, 0x8e, 0x32, 0x3e, 0xae, 0x69, 0xb5, 0xbd,
  0xf0, 0x77, 0x72, 0xbd, 0x4a, 0x16, 0x8e, 0xbd, 0x40, 0xe9, 0x02, 0x3d,
  0x10, 0xcd, 0x3e, 0xbd, 0xe6, 0x46, 0xd5, 0x3d, 0xd0, 0xbe, 0x52, 0xbe,
  0xd2, 0xb2, 0xd8, 0x3d, 0x14, 0x54, 0x18, 0x3d, 0x70, 0x6b, 0xd1, 0xbd,
  0x00, 0xf8, 0xa8, 0x38, 0xb8, 0xdb, 0xab, 0xbd, 0xce, 0x32, 0x82, 0xbd,
  0x60, 0x8b, 0xb8, 0x3c, 0x00, 0x98, 0x55, 0xbe, 0x8f, 0xec, 0x48, 0xbe,
  0xd0, 0x38, 0x0c, 0x3c, 0x62, 0xcb, 0x55, 0xbe, 0x70, 0xb0, 0xed, 0x3c,
  0x52, 0x24, 0x1b, 0xbe, 0x36, 0x98, 0x40, 0xbe, 0x1d, 0x92, 0x2e, 0x3e,
  0xa3, 0x7e, 0x30, 0x3e, 0x5c, 0x66, 0xc4, 0xbd, 0xf3, 0x48, 0xb9, 0xbd,
  0xce, 0xfe, 0xed, 0x3d, 0x70, 0xd9, 0xc4, 0xbd, 0x51, 0x48, 0x0e, 0x3e,
  0x07, 0xe7, 0x0c, 0x3e, 0xac, 0x09, 0x4d, 0xbe, 0xd8, 0xaf, 0x9f, 0xbd,
  0x40, 0xea, 0xac, 0xbd, 0xf5, 0x55, 0x50, 0x3e, 0x1e, 0x75, 0xec, 0x3d,
  0x17, 0xec, 0x49, 0x3e, 0x58, 0xdb, 0x1a, 0xbe, 0x26, 0x71, 0xa8, 0x3d,
  0x1e, 0xa8, 0x13, 0xbe, 0x77, 0x39, 0xe9, 0xbd, 0xba, 0xc2, 0xdd, 0x3d,
  0x84, 0x9f, 0x49, 0xbe, 0xc0, 0x40, 0x33, 0xbc, 0x8c, 0x5d, 0x09, 0xbe,
  0x87, 0x97, 0xea, 0xbd, 0x13, 0x4f, 0x53, 0x3e, 0x50, 0x4a, 0x74, 0x3c,
  0x82, 0x47, 0x8f, 0x3d, 0x9a, 0x0e, 0x84, 0xbd, 0x25, 0x2a, 0x20, 0xbe,
  0xd8, 0x14, 0x9d, 0xbc, 0x4a, 0x84, 0x8f, 0xbd, 0x6d, 0xcb, 0x2d, 0x3e,
  0x40, 0x55, 0xe7, 0xbc, 0x14, 0xe9, 0x4d, 0xbe, 0x59, 0xfe, 0x3c, 0x3e,
  0x7a, 0xc6, 0x94, 0x3d, 0x98, 0x14, 0xa3, 0xbc, 0x6e, 0xf7, 0xef, 0x3d,
  0xf6, 0xa0, 0xb8, 0x3d, 0x4e, 0xe2, 0xc7, 0xbd, 0x44, 0x68, 0x28, 0xbe,
  0x17, 0xef, 0x39, 0xbe, 0x8d, 0xd2, 0xff, 0xbd, 0xfa, 0x25, 0x8d, 0x3d,
  0x8f, 0xad, 0x17, 0x3e, 0x04, 0xaa, 0xb2, 0xbd, 0x50, 0xa5, 0x37, 0xbe,
  0xd9, 0xd9, 0x39, 0x3e, 0xa0, 0x0b, 0x45, 0xbe, 0x66, 0xda, 0xab, 0x3d,
  0x86, 0x0a, 0xbd, 0x3d, 0xe0, 0xee, 0xee, 0xbc, 0x87, 0xe7, 0x54, 0x3e,
  0xc2, 0x68, 0xe4, 0x3d, 0x59, 0xf8, 0x39, 0x3e, 0x62, 0x9d, 0x39, 0xbe,
  0x9f, 0xac, 0x28, 0xbe, 0x32, 0xb8, 0x9a, 0x3d, 0xe4, 0xe2, 0x08, 0x3d,
  0x15, 0xfc, 0x44, 0xbe, 0xa4, 0xef, 0x23, 0xbe, 0x51, 0x05, 0x4e, 0x3e,
  0xc0, 0xb5, 0x1d, 0x3d, 0x34, 0x50, 0x37, 0x3d, 0x90, 0x3f, 0x72, 0x3c,
  0xfa, 0x78, 0xc4, 0x3d, 0xc0, 0x0e, 0x6b, 0xbc, 0x50, 0xfd, 0x3d, 0xbc,
  0xa6, 0x8b, 0x85, 0x3d, 0xc8, 0x0e, 0xce, 0xbc, 0x56, 0x47, 0x8c, 0x3d,
  0x20, 0x5f, 0xe6, 0x3b, 0xab, 0x96, 0x4b, 0x3e, 0x3c, 0xc0, 0x6e, 0x3d,
  0xe9, 0xe5, 0x3f, 0x3e, 0xab, 0x6c, 0x1c, 0xbe, 0xbc, 0x3c, 0x52, 0xbe,
  0x09, 0xb3, 0xdf, 0xbd, 0xef, 0xf7, 0x34, 0x3e, 0x80, 0x28, 0x91, 0x3a,
  0xfe, 0x73, 0x0c, 0xbe, 0x5f, 0x21, 0x25, 0x3e, 0x4e, 0x22, 0x34, 0xbe,
  0xb3, 0xb1, 0x20, 0xbe, 0x47, 0xc3, 0x4b, 0xbe, 0x9c, 0x03, 0x86, 0xbd,
  0xc0, 0x2d, 0x60, 0xbc, 0xaa, 0xa8, 0x01, 0xbe, 0x88, 0xa9, 0xf0, 0x3c,
  0x00, 0xe2, 0xf5, 0xb9, 0x30, 0xe1, 0x57, 0xbc, 0xd9, 0x88, 0x0b, 0xbe,
  0x3a, 0x52, 0xbf, 0xbd, 0x6f, 0x7c, 0xc7, 0xbd, 0xb4, 0xda, 0x28, 0x3d,
  0x85, 0x7f, 0x30, 0x3e, 0x67, 0x2b, 0x1e, 0x3e, 0x80, 0x9e, 0x63, 0x3c,
  0x68, 0x2f, 0x88, 0x3c, 0x71, 0x1f, 0x01, 0x3e, 0xf2, 0x4c, 0x18, 0xbe,
  0x84, 0x9c, 0x24, 0x3d, 0xfe, 0xd5, 0xb6, 0x3d, 0x6a, 0x41, 0xf6, 0x3d,
  0x1d, 0x89, 0x4b, 0x3e, 0xc8, 0x39, 0x0a, 0xbd, 0x4d, 0x76, 0x2e, 0x3e,
  0xe2, 0x58, 0x2a, 0xbe, 0x88, 0xa1, 0xb7, 0xbd, 0x98, 0x69, 0x95, 0x3c,
  0xbf, 0xd5, 0x1d, 0x3e, 0x6a, 0x3e, 0xd6, 0x3d, 0x5c, 0x43, 0x57, 0x3d,
  0x14, 0xc0, 0x22, 0xbe, 0xe1, 0x4c, 0x2c, 0x3e, 0x10, 0x15, 0xe9, 0xbc,
  0xbc, 0xe5, 0x26, 0xbe, 0xbe, 0xec, 0x80, 0x3d, 0x66, 0x79, 0x9c, 0x3d,
  0x38, 0xbc, 0xa9, 0x3c, 0xe0, 0x16, 0x6f, 0xbd, 0xe7, 0xaf, 0x0b, 0xbe,
  0x12, 0xc5, 0xa0, 0x3d, 0xf8, 0x6f, 0x97, 0xbc, 0xf7, 0x24, 0x39, 0xbe,
  0x10, 0x92, 0xfe, 0xbc, 0x1f, 0x39, 0x35, 0xbe, 0x4d, 0xe3, 0xb9, 0xbd,
  0xc0, 0x09, 0xf1, 0xbb, 0xb0, 0xd3, 0x5d, 0xbd, 0xe1, 0x6e, 0xd8, 0xbd,
  0x80, 0x49, 0xf7, 0xbc, 0x78, 0x46, 0xf4, 0xbd, 0x16, 0x52, 0x83, 0x3d,
  0xca, 0x9a, 0x88, 0x3d, 0x2a, 0x87, 0x3b, 0xbe, 0xb3, 0xd8, 0x44, 0x3e,
  0xd6, 0xf2, 0x89, 0x3d, 0xcf, 0xd0, 0xfb, 0xbd, 0xb9, 0x82, 0x10, 0x3e,
  0xb8, 0x26, 0x33, 0xbd, 0x8e, 0x8c, 0x0d, 0xbe, 0xee, 0xef, 0x3f, 0xbe,
  0xfc, 0xd3, 0x02, 0x3d, 0x32, 0x8a, 0xe2, 0x3d, 0xcc, 0xe7, 0x39, 0x3d,
  0xee, 0xbe, 0x7e, 0xbd, 0xec, 0x0b, 0x63, 0xbb, 0xfd, 0xaa, 0xcd, 0x3c,
  0xec, 0xa8, 0xe9, 0xbc, 0xd1, 0x6b, 0x7b, 0x3e, 0x5e, 0x20, 0x4e, 0x3e,
  0xb5, 0x12, 0x17, 0x3e, 0x4f, 0xa5, 0xc8, 0x3d, 0xb5, 0x5e, 0x0f, 0x3d,
  0xb6, 0x85, 0x6d, 0xbd, 0x03, 0xe2, 0xc5, 0xb9, 0xb5, 0xb7, 0xbc, 0x3b,
  0xbb, 0x83, 0x02, 0x3e, 0x23, 0xcb, 0xd5, 0x3c, 0x5c, 0x4f, 0x7a, 0xbb,
  0x57, 0x70, 0x90, 0xbd, 0x5f, 0x29, 0xfa, 0xbd, 0xea, 0x9a, 0x80, 0xbb,
  0x97, 0xcf, 0x4b, 0x3e, 0x5e, 0x7e, 0x19, 0x3d, 0xbe, 0x76, 0x4e, 0x3d,
  0xfd, 0xad, 0x18, 0xbe, 0x86, 0x78, 0xea, 0x3d, 0x07, 0x02, 0xb8, 0x3d,
  0xf6, 0x16, 0xe7, 0x3c, 0xaf, 0x7f, 0x38, 0xbe, 0x5d, 0x6b, 0xe4, 0xbd,
  0x6d, 0xf8, 0xce, 0x3d, 0xba, 0x65, 0x0c, 0x3e, 0xa8, 0xe6, 0xac, 0x3d,
  0x3b, 0x67, 0x4c, 0x3e, 0xaa, 0xdb, 0x84, 0xbd, 0x7a, 0xc2, 0xf6, 0xbd,
  0xfa, 0x52, 0x12, 0xbd, 0xfc, 0x98, 0x0b, 0x3e, 0xc1, 0x06, 0x16, 0xbd,
  0xa4, 0xb0, 0xf9, 0xbb, 0x4a, 0xaf, 0xc3, 0xbb, 0x86, 0x97, 0x61, 0x3d,
  0x27, 0x59, 0x9c, 0x3c, 0xdb, 0x38, 0x9b, 0x3e, 0x9a, 0xc5, 0x07, 0xbe,
  0x47, 0x03, 0x6e, 0xbe, 0xd1, 0x9b, 0x14, 0x3e, 0x97, 0x3d, 0x1a, 0xbe,
  0xf6, 0x91, 0xd5, 0x3d, 0x68, 0xc8, 0x9a, 0xbc, 0x2c, 0xdb, 0x31, 0x3e,
  0x71, 0x2d, 0x07, 0xbc, 0x2d, 0x88, 0x8f, 0x3e, 0x5b, 0x53, 0x0e, 0x3e,
  0x1e, 0xca, 0xff, 0x3d, 0x02, 0x90, 0x24, 0xbd, 0x25, 0x7d, 0x1e, 0x3d,
  0xa4, 0xe1, 0x08, 0xbe, 0x23, 0xbe, 0x0e, 0xbe, 0x0c, 0x26, 0x1d, 0xbe,
  0x43, 0xd1, 0x4b, 0xbd, 0xa7, 0xbe, 0xb5, 0x3d, 0xbe, 0x2e, 0xdb, 0xbd,
  0x07, 0xd3, 0xd3, 0xbd, 0x8c, 0x8c, 0xcd, 0xbd, 0x31, 0x4e, 0x1b, 0x3d,
  0x81, 0xdc, 0x5c, 0xbe, 0x3d, 0x6d, 0xe8, 0x3d, 0x21, 0xd1, 0x38, 0x3e,
  0x36, 0x46, 0x31, 0x3e, 0x1d, 0x0e, 0xb9, 0x3d, 0xcf, 0x03, 0x12, 0x3d,
  0xc6, 0xe7, 0x5c, 0xbd, 0xcb, 0xcc, 0x0c, 0x3d, 0xf9, 0x67, 0x58, 0x3e,
  0xab, 0x08, 0x52, 0xbd, 0xdf, 0x9a, 0x01, 0xbe, 0xbf, 0xdb, 0x66, 0x3d,
  0x95, 0x11, 0x18, 0x3e, 0x85, 0x2e, 0x01, 0x3e, 0x89, 0xc6, 0x12, 0xbe,
  0x3a, 0x67, 0xc0, 0xbc, 0x2b, 0x98, 0x07, 0x3e, 0x05, 0xda, 0x7d, 0x3d,
  0xfa, 0x5b, 0x93, 0xbe, 0x36, 0xf6, 0x7a, 0x3d, 0x7b, 0xc9, 0x0e, 0x3d,
  0x3c, 0xb5, 0x4c, 0x3e, 0x77, 0x12, 0x06, 0x3e, 0xd2, 0xa2, 0x0e, 0xbe,
  0x6a, 0xae, 0xfa, 0xbd, 0x13, 0xba, 0xb9, 0x3d, 0x3e, 0xd9, 0x45, 0x3e,
  0x9b, 0x11, 0x2b, 0xbe, 0xe2, 0x49, 0x17, 0x3e, 0x6d, 0x52, 0x34, 0xbd,
  0x7b, 0x7d, 0xe7, 0xbd, 0x63, 0xc5, 0x48, 0x3e, 0xc9, 0xd4, 0x81, 0x3b,
  0x3d, 0x3b, 0x61, 0xbe, 0x47, 0xd4, 0x43, 0x3e, 0xb7, 0x1a, 0xa5, 0x3d,
  0x0b, 0x95, 0xf0, 0xbc, 0x28, 0x2c, 0x2b, 0xbd, 0x4f, 0x83, 0x2b, 0xbd,
  0x1d, 0xce, 0x7e, 0x3e, 0xb7, 0xd5, 0xa7, 0x3e, 0xa8, 0x58, 0x13, 0xbc,
  0x23, 0x9f, 0x3c, 0xbd, 0x77, 0x9b, 0x6a, 0x3e, 0xd5, 0x6f, 0x3f, 0xbe,
  0x21, 0x90, 0x40, 0xbe, 0xed, 0x33, 0x56, 0x3e, 0x86, 0x9d, 0x1b, 0xbd,
  0x29, 0x90, 0x75, 0xbd, 0x96, 0x2b, 0x59, 0xbc, 0x8d, 0x6a, 0x15, 0xbe,
  0xd7, 0x3b, 0x83, 0xbd, 0x87, 0x18, 0xb7, 0xbd, 0x1a, 0x5c, 0xef, 0xbd,
  0xab, 0xd5, 0x96, 0x3c, 0xbc, 0x32, 0x83, 0x3e, 0x04, 0x3a, 0x5c, 0x3d,
  0xa5, 0xed, 0xc7, 0xbd, 0x62, 0x40, 0x0b, 0x3e, 0x9a, 0x19, 0x0a, 0x3e,
  0xf2, 0x3d, 0x04, 0xbe, 0x86, 0x31, 0x63, 0x3e, 0xf9, 0x6c, 0xaf, 0xba,
  0x2a, 0x38, 0x8d, 0x3d, 0xd8, 0xf2, 0x32, 0xbe, 0xc0, 0x15, 0x6d, 0x3b,
  0xd5, 0x76, 0x00, 0x3e, 0xd3, 0x3b, 0x10, 0x3e, 0xb1, 0x0a, 0x02, 0x3e,
  0x70, 0x52, 0x0c, 0x3c, 0xc5, 0xbd, 0x41, 0x3e, 0x72, 0xe8, 0xc7, 0x3d,
  0x65, 0x39, 0x34, 0xbe, 0xce, 0x07, 0x4d, 0xbe, 0xfa, 0x82, 0x2c, 0xbe,
  0xcc, 0xd5, 0x80, 0xbd, 0x28, 0x1a, 0x51, 0xbd, 0x96, 0x9e, 0xf9, 0x3d,
  0x02, 0xff, 0xb6, 0xbd, 0x85, 0xf8, 0x03, 0x3e, 0x58, 0xf7, 0xae, 0xbc,
  0x6b, 0xa7, 0x08, 0x3e, 0x42, 0x71, 0xd4, 0x3d, 0x2e, 0x01, 0xac, 0xbd,
  0x40, 0xbf, 0xe8, 0xbd, 0xa0, 0xc6, 0x89, 0x3b, 0x1e, 0xaa, 0xce, 0xbd,
  0x73, 0x30, 0x4f, 0x3e, 0x09, 0x25, 0x25, 0x3e, 0x99, 0xd9, 0x3d, 0x3e,
  0xc0, 0x26, 0x75, 0x3b, 0x3d, 0x7d, 0x2c, 0xbe, 0x84, 0xc9, 0x58, 0xbd,
  0x9d, 0xfa, 0x28, 0x3e, 0x6b, 0xf3, 0xb7, 0xbd, 0x3d, 0xf5, 0x51, 0xbe,
  0x99, 0xd1, 0xfb, 0xbd, 0xe6, 0xca, 0x41, 0xbe, 0x90, 0xfd, 0x4a, 0xbe,
  0xca, 0x4e, 0x82, 0x3d, 0x54, 0x34, 0xd1, 0xbd, 0xda, 0x17, 0xa6, 0x3d,
  0x8d, 0xae, 0x12, 0xbe, 0xec, 0x4a, 0x0d, 0x3d, 0xc2, 0x4b, 0x9f, 0x3d,
  0xd2, 0xa9, 0x80, 0x3d, 0x40, 0x97, 0xf9, 0x3b, 0x60, 0xe9, 0x4c, 0xbe,
  0x3e, 0x66, 0x1a, 0xbe, 0x04, 0x02, 0xfe, 0xbd, 0x2e, 0x36, 0x3b, 0xbe,
  0x5f, 0x08, 0x4e, 0xbe, 0x05, 0x58, 0x38, 0x3e, 0xa2, 0xe4, 0xe4, 0x3d,
  0xa8, 0xf1, 0xfd, 0xbd, 0x5e, 0x77, 0xc0, 0xbd, 0xa2, 0x1f, 0xf9, 0xbd,
  0xd7, 0xb4, 0x46, 0x3e, 0x8c, 0x32, 0x33, 0xbd, 0x03, 0x60, 0xc6, 0xbd,
  0x6e, 0x13, 0x8b, 0x3d, 0xf0, 0x9f, 0x08, 0xbd, 0xf8, 0x9b, 0xe6, 0x3c,
  0x74, 0x65, 0x99, 0xbd, 0xda, 0xc2, 0x2b, 0xbe, 0x18, 0x45, 0xc4, 0xbd,
  0x86, 0x3c, 0x96, 0x3d, 0x4e, 0x69, 0xc1, 0x3d, 0xd5, 0xfa, 0x2e, 0xbe,
  0xea, 0xed, 0x9f, 0x3d, 0xd0, 0x16, 0x3b, 0x3c, 0x6a, 0xb2, 0x55, 0xbe,
  0x86, 0x9c, 0xdb, 0x3d, 0xd0, 0xc0, 0x3f, 0xbe, 0x00, 0x72, 0xfe, 0xba,
  0xba, 0x67, 0xee, 0x3d, 0xee, 0x76, 0xb6, 0x3d, 0x62, 0x57, 0x21, 0xbe,
  0x68, 0xdd, 0x3c, 0xbd, 0x93, 0x47, 0x1f, 0x3e, 0x24, 0x94, 0x1b, 0xbe,
  0xf6, 0x65, 0xa8, 0x3d, 0x40, 0xbe, 0x7a, 0xbd, 0x30, 0x9d, 0xe5, 0x3c,
  0xe5, 0x94, 0x3b, 0x3e, 0x9a, 0x00, 0xa5, 0x3d, 0x21, 0x04, 0x30, 0x3e,
  0xa8, 0xe2, 0x2f, 0xbe, 0xf2, 0xaa, 0x38, 0xbe, 0x40, 0xee, 0xa6, 0x3b,
  0xbd, 0xb5, 0x2b, 0xbe, 0x30, 0x3f, 0x7e, 0x3c, 0xb0, 0x0f, 0xad, 0xbd,
  0x46, 0x33, 0x4f, 0xbe, 0xb1, 0xa4, 0x05, 0x3e, 0x5e, 0x72, 0x1d, 0xbe,
  0x22, 0x01, 0x2e, 0xbe, 0x99, 0x08, 0x18, 0x3e, 0x28, 0xc4, 0xf9, 0x3c,
  0xdb, 0xe4, 0x03, 0x3e, 0x15, 0x87, 0x23, 0x3e, 0x4e, 0x82, 0xa3, 0x3d,
  0x2e, 0x53, 0xac, 0x3d, 0xf2, 0x78, 0x91, 0x3d, 0x21, 0x0a, 0xc6, 0xbd,
  0x5c, 0xcd, 0x5f, 0x3d, 0x02, 0xa9, 0x43, 0xbe, 0x72, 0x2a, 0x9a, 0xbd,
  0xd4, 0x7a, 0x4c, 0x3d, 0x1c, 0x1f, 0x6b, 0xbd, 0x02, 0x6f, 0x87, 0x3d,
  0x27, 0x26, 0x1a, 0x3e, 0x82, 0x20, 0x97, 0x3d, 0x4f, 0x41, 0x4d, 0x3e,
  0xc2, 0x44, 0xa6, 0x3d, 0xd7, 0xc6, 0x23, 0xbe, 0x20, 0xa4, 0xc4, 0xbc,
  0x55, 0x2d, 0x20, 0x3e, 0x24, 0x04, 0x5b, 0x3d, 0xa0, 0x46, 0xac, 0xbd,
  0xb7, 0x0c, 0x35, 0x3e, 0xe7, 0x55, 0xcd, 0xbd, 0x6c, 0x81, 0x72, 0x3d,
  0x83, 0x08, 0x44, 0x3e, 0x1b, 0xf3, 0x4b, 0x3e, 0x06, 0xd5, 0x8a, 0x3d,
  0x7a, 0x64, 0x48, 0xbe, 0x82, 0xf5, 0xbf, 0xbd, 0x10, 0x2a, 0x1a, 0xbc,
  0xe7, 0x0e, 0xbf, 0xbc, 0x52, 0xf7, 0x3f, 0xbe, 0x43, 0x25, 0xa2, 0x3d,
  0xdf, 0xb8, 0xbe, 0xbd, 0xad, 0x66, 0x51, 0xbe, 0x7c, 0x8a, 0xba, 0x3d,
  0x7d, 0xbb, 0x80, 0x3d, 0x62, 0x11, 0xea, 0x3d, 0x7a, 0x6b, 0x48, 0xbe,
  0x90, 0x4c, 0x3b, 0xbd, 0x8e, 0xcb, 0x93, 0xbd, 0x2b, 0x2d, 0x2f, 0x3d,
  0xaa, 0xbb, 0x23, 0x3e, 0x4f, 0x75, 0x27, 0xbe, 0x83, 0x68, 0xe7, 0x3d,
  0x9e, 0x9e, 0x1b, 0xbc, 0x17, 0x21, 0x3d, 0xbe, 0x4f, 0xc8, 0x1c, 0xbe,
  0x70, 0x28, 0x07, 0x3c, 0x5d, 0xc7, 0x0a, 0xbe, 0x1d, 0x1f, 0x33, 0xbe,
  0x55, 0x5d, 0x01, 0xbc, 0x33, 0xb1, 0x0d, 0xbe, 0x44, 0x61, 0x39, 0xbe,
  0x3e, 0x1e, 0xb4, 0x3b, 0x59, 0xc1, 0x4e, 0xbe, 0xc4, 0x8d, 0xce, 0x3d,
  0xc0, 0xcb, 0x7c, 0xbd, 0x0f, 0x9d, 0xa9, 0x3d, 0x48, 0x6f, 0x0c, 0x3d,
  0x0a, 0x97, 0xbf, 0x3d, 0xda, 0xd1, 0xe4, 0x3d, 0xb8, 0xa5, 0x32, 0xbe,
  0x4f, 0x0f, 0xd5, 0xbb, 0x7c, 0xc0, 0x2e, 0x3d, 0x8d, 0x7e, 0x85, 0x3d,
  0x49, 0x86, 0x1f, 0x3e, 0xb4, 0xbf, 0x22, 0x3e, 0xe8, 0xf0, 0x1f, 0x3e,
  0xae, 0x13, 0xe6, 0x3d, 0x5a, 0x60, 0x2f, 0x3e, 0x8e, 0xc4, 0x21, 0xbe,
  0xbf, 0xc7, 0x1b, 0xba, 0x17, 0xf3, 0x91, 0x3d, 0x82, 0xcd, 0x93, 0xbd,
  0xa6, 0xb1, 0x2c, 0xbe, 0x34, 0xb3, 0xd7, 0xbc, 0xeb, 0xcd, 0x05, 0x3e,
  0x0d, 0x1e, 0x2a, 0xbe, 0x12, 0x5b, 0x1d, 0x3e, 0x04, 0xb6, 0x0e, 0x3e,
  0xd0, 0xb5, 0x30, 0x3e, 0xd5, 0x60, 0x01, 0xbd, 0xcb, 0xe6, 0xd5, 0x3c,
  0x36, 0x11, 0x4c, 0x3e, 0xc5, 0xe8, 0x28, 0x3e, 0xd5, 0x3c, 0xc0, 0xbd,
  0x57, 0x6a, 0x7b, 0x3c, 0xd1, 0x32, 0x22, 0x3e, 0xbb, 0x97, 0x09, 0x3d,
  0x90, 0x7f, 0x4f, 0x3e, 0x04, 0x0b, 0xed, 0x3b, 0xbf, 0xee, 0xc8, 0x3d,
  0x85, 0xa9, 0xae, 0xbd, 0x8c, 0x95, 0x4c, 0x3e, 0xa2, 0x6f, 0x30, 0xbd,
  0xe2, 0xe4, 0xde, 0xbd, 0x7b, 0xb5, 0x93, 0xbb, 0xc7, 0xe9, 0x7b, 0xbd,
  0xa2, 0xfa, 0x0d, 0x3d, 0x5a, 0x7a, 0x15, 0x3d, 0x38, 0xd7, 0xae, 0xbd,
  0xec, 0xa6, 0xc0, 0xbd, 0x24, 0x8b, 0x2f, 0xbe, 0x05, 0x5e, 0x32, 0x3b,
  0x88, 0x55, 0x2e, 0x3e, 0xfc, 0x26, 0x73, 0x3c, 0xdf, 0x41, 0x5d, 0xbd,
  0xbe, 0xd0, 0x54, 0xbe, 0xe2, 0x68, 0x08, 0xbe, 0xee, 0x3c, 0xa0, 0xbb,
  0xf7, 0xb9, 0x3f, 0x3e, 0x50, 0xd6, 0x0f, 0xbe, 0x59, 0x59, 0xdf, 0x3c,
  0xbe, 0x79, 0x58, 0xbd, 0x7c, 0xe4, 0x52, 0xbe, 0xab, 0xf1, 0xcc, 0x3d,
  0x5d, 0xf1, 0x56, 0x3c, 0x83, 0x91, 0x36, 0xbe, 0x44, 0xe6, 0xf5, 0x3d,
  0xd9, 0xcd, 0x76, 0x3c, 0x0a, 0x46, 0x52, 0xbe, 0x04, 0xcd, 0x3d, 0x3e,
  0x28, 0xae, 0x54, 0xbd, 0x03, 0xd9, 0x83, 0x3d, 0x0f, 0x18, 0x26, 0x3d,
  0x86, 0x17, 0x3d, 0xbe, 0x08, 0x70, 0xcd, 0xbd, 0x6d, 0xcc, 0x08, 0x3d,
  0xb0, 0x0b, 0x59, 0x3e, 0x5b, 0x6b, 0xf5, 0x3b, 0xea, 0xbd, 0x11, 0x3e,
  0xd8, 0x11, 0x8c, 0xbb, 0x8d, 0x14, 0x11, 0x3b, 0xa1, 0x69, 0x0b, 0xbe,
  0x42, 0x41, 0x1d, 0xbc, 0x47, 0xc0, 0xc4, 0x3d, 0xc0, 0x34, 0x99, 0xbd,
  0xc5, 0x18, 0x6b, 0xbc, 0xe8, 0x72, 0x4e, 0x3e, 0xdc, 0xca, 0x39, 0xbe,
  0xfc, 0xbb, 0x26, 0xbe, 0xdc, 0x7d, 0x21, 0xbe, 0xde, 0xa7, 0x3f, 0xbe,
  0x5e, 0x44, 0xbf, 0x3d, 0xa2, 0xd3, 0xe9, 0xbd, 0x89, 0x14, 0xf1, 0xbd,
  0x2c, 0x52, 0x56, 0x3e, 0x50, 0xdf, 0x55, 0xbe, 0xd6, 0x90, 0x59, 0xbc,
  0xb8, 0x2d, 0x43, 0x3d, 0x16, 0x58, 0xf9, 0x3d, 0x85, 0x8d, 0x47, 0xbe,
  0xa2, 0x57, 0x8c, 0x3d, 0xfe, 0x49, 0x77, 0xbd, 0xed, 0x29, 0x00, 0x3c,
  0x95, 0x2b, 0x60, 0xbe, 0xb3, 0x9a, 0x14, 0x3a, 0x7e, 0x4d, 0xc0, 0x3c,
  0xfa, 0xe2, 0xdf, 0xbc, 0x06, 0x39, 0x8d, 0xbd, 0xf5, 0x38, 0x06, 0x3e,
  0x37, 0x12, 0x22, 0x3e, 0xc8, 0x1f, 0xc9, 0x3d, 0x2f, 0x40, 0x27, 0xba,
  0xaa, 0x66, 0xa5, 0x3d, 0xab, 0xef, 0xde, 0x39, 0x57, 0x68, 0x2d, 0xbe,
  0xb2, 0xe0, 0x99, 0xbc, 0x59, 0x7f, 0x2f, 0x3e, 0xd4, 0x50, 0xd9, 0xbd,
  0xaa, 0x0c, 0x12, 0xbd, 0x9d, 0xe4, 0xb4, 0xbd, 0x32, 0x4e, 0x08, 0xbe,
  0x01, 0xeb, 0x6d, 0xbd, 0xa8, 0xaf, 0x39, 0xbe, 0x02, 0x7d, 0xc2, 0xbd,
  0x64, 0xee, 0x62, 0xbe, 0xd9, 0x7f, 0xf0, 0x3d, 0x74, 0x1e, 0x46, 0xbe,
  0x2b, 0x00, 0x00, 0xbe, 0xfc, 0xe3, 0xcd, 0xbd, 0xf9, 0x4f, 0x9d, 0x3d,
  0x50, 0x9f, 0xe8, 0xbd, 0xc5, 0x10, 0x19, 0x3e, 0xf0, 0x6d, 0xd4, 0x3c,
  0x26, 0x7d, 0x65, 0xbe, 0xbf, 0x44, 0x57, 0xbe, 0x39, 0x07, 0x09, 0x3e,
  0x37, 0x19, 0xa3, 0x3d, 0x13, 0x1f, 0xaf, 0x3d, 0xa0, 0x7e, 0x9e, 0xbd,
  0x80, 0x08, 0x97, 0xbd, 0x3f, 0x7f, 0x0a, 0xbe, 0xd4, 0xdf, 0x29, 0x3e,
  0xd7, 0x7b, 0x45, 0x3d, 0x1b, 0x25, 0x09, 0xbe, 0x7b, 0x31, 0x5a, 0xbd,
  0x23, 0x5f, 0xd2, 0x3d, 0x9c, 0x9d, 0x21, 0x3e, 0xd6, 0xb1, 0xe1, 0xbd,
  0x67, 0x82, 0x32, 0xbe, 0xaf, 0x2e, 0xc5, 0x3d, 0xbb, 0x20, 0x1b, 0xbd,
  0x14, 0x93, 0x76, 0xbc, 0xfe, 0x82, 0xe9, 0x3b, 0x28, 0xff, 0x3c, 0x3e,
  0x93, 0xd7, 0x88, 0xbd, 0xb7, 0xc8, 0xbe, 0xbc, 0x17, 0x85, 0x18, 0x3e,
  0xc7, 0xcf, 0x35, 0x3d, 0x66, 0xa1, 0x63, 0x3d, 0x91, 0x1b, 0xb7, 0x3c,
  0x0f, 0xf4, 0x55, 0x3c, 0x4a, 0x47, 0x20, 0xbc, 0xa3, 0x77, 0x17, 0x3e,
  0xab, 0x6b, 0x1b, 0xbd, 0x5b, 0x31, 0x62, 0x3d, 0x7f, 0xec, 0x0d, 0x3e,
  0x43, 0xc5, 0xab, 0x3d, 0x4f, 0x15, 0xe6, 0x3d, 0xb6, 0x2f, 0xff, 0x3d,
  0x37, 0xa0, 0x50, 0xbd, 0xf2, 0x60, 0x27, 0x3d, 0xa3, 0xcd, 0xf7, 0xbd,
  0x44, 0x7f, 0x3e, 0xbe, 0x02, 0x6a, 0xe1, 0xbc, 0x31, 0xf7, 0xba, 0xbd,
  0x11, 0xf5, 0x8a, 0xbd, 0xde, 0x15, 0x3e, 0x3e, 0x7b, 0x92, 0x0a, 0x3c,
  0x11, 0x87, 0xe5, 0x3c, 0x6e, 0x3b, 0xde, 0x3b, 0x46, 0xcc, 0x6b, 0xbd,
  0xec, 0x2c, 0x13, 0xbe, 0x58, 0xd1, 0xc9, 0x3d, 0x74, 0x53, 0x18, 0xbe,
  0xd1, 0x02, 0x25, 0xbe, 0x86, 0xf3, 0x21, 0x3e, 0xef, 0x11, 0x0c, 0x3e,
  0xf4, 0x13, 0xd8, 0x3d, 0xf0, 0xe7, 0x05, 0x3b, 0x95, 0xe0, 0x28, 0xbe,
  0x4a, 0x21, 0x49, 0xbe, 0x6a, 0x70, 0x03, 0xbc, 0x2c, 0x2c, 0xe7, 0xbd,
  0x4e, 0x5e, 0x1b, 0xbe, 0xa2, 0xff, 0x33, 0x3e, 0x3f, 0xc5, 0x1b, 0x3e,
  0xd7, 0xea, 0xf3, 0xbb, 0x40, 0x83, 0x40, 0xbe, 0x98, 0x58, 0xe9, 0xbd,
  0xea, 0xda, 0x03, 0xbd, 0x0b, 0xb0, 0xfb, 0xbd, 0xdb, 0xf2, 0xe3, 0xbd,
  0x6b, 0xe9, 0xad, 0xbb, 0x15, 0x17, 0x5b, 0xbc, 0xd9, 0xc0, 0xd1, 0xbd,
  0xe4, 0x6c, 0x3d, 0x3d, 0x19, 0x34, 0x21, 0xbe, 0x72, 0x44, 0x1b, 0x3d,
  0x0c, 0xfa, 0xa5, 0xbd, 0x87, 0x9b, 0x09, 0xbd, 0x4c, 0x14, 0x36, 0x3e,
  0x36, 0xba, 0xac, 0xbd, 0x7d, 0x95, 0x02, 0xbe, 0x28, 0x93, 0x0e, 0xbe,
  0xd1, 0x51, 0xef, 0x3d, 0xad, 0xa9, 0xf3, 0x3d, 0x4e, 0xe2, 0x49, 0x3d,
  0x22, 0x32, 0xeb, 0xbd, 0x00, 0xc3, 0xea, 0xbc, 0x0d, 0xfc, 0xca, 0x3d,
  0x60, 0x60, 0xc1, 0xbd, 0xbc, 0x71, 0x33, 0xbe, 0x4c, 0x51, 0xf0, 0xbd,
  0x77, 0x50, 0xf0, 0x3d, 0x02, 0x53, 0x40, 0xbe, 0x6d, 0xbc, 0x4d, 0xbe,
  0x49, 0x11, 0xa9, 0x3d, 0x28, 0xf0, 0xab, 0x3c, 0xfd, 0xc4, 0x3d, 0x3e,
  0xee, 0xfe, 0xff, 0xff, 0x04, 0x00, 0x00, 0x00, 0x28, 0x00, 0x00, 0x00,
  0xdc, 0x16, 0xc8, 0xbc, 0x5e, 0xad, 0x70, 0x3d, 0x86, 0x20, 0xeb, 0xbc,
  0x48, 0xd5, 0x1e, 0x3d, 0xa4, 0x94, 0x3d, 0x3d, 0x9a, 0xe0, 0x60, 0xbd,
  0x23, 0x0c, 0x18, 0x3d, 0xeb, 0xbe, 0x06, 0x3d, 0xb4, 0x66, 0x12, 0xbd,
  0x8b, 0xe1, 0x5d, 0x3c, 0x22, 0xff, 0xff, 0xff, 0x04, 0x00, 0x00, 0x00,
  0x08, 0x00, 0x00, 0x00, 0x32, 0xd0, 0xf9, 0xbc, 0x34, 0xd0, 0xf9, 0x3c,
  0x36, 0xff, 0xff, 0xff, 0x04, 0x00, 0x00, 0x00, 0x28, 0x00, 0x00, 0x00,
  0x8b, 0xcf, 0xc2, 0x3c, 0x3f, 0x38, 0xb0, 0x3c, 0x6b, 0x59, 0x96, 0x3d,
  0xb1, 0x5b, 0xee, 0x3c, 0x00, 0x00, 0x00, 0x00, 0x00, 0x00, 0x00, 0x00,
  0x9f, 0xc6, 0xca, 0x3c, 0x00, 0x00, 0x00, 0x00, 0xe0, 0x9a, 0xc4, 0xbb,
  0x28, 0x07, 0x89, 0xbc, 0x64, 0xfa, 0xff, 0xff, 0x68, 0xfa, 0xff, 0xff,
  0x0f, 0x00, 0x00, 0x00, 0x4d, 0x4c, 0x49, 0x52, 0x20, 0x43, 0x6f, 0x6e,
  0x76, 0x65, 0x72, 0x74, 0x65, 0x64, 0x2e, 0x00, 0x01, 0x00, 0x00, 0x00,
  0x14, 0x00, 0x00, 0x00, 0x00, 0x00, 0x0e, 0x00, 0x18, 0x00, 0x14, 0x00,
  0x10, 0x00, 0x0c, 0x00, 0x08, 0x00, 0x04, 0x00, 0x0e, 0x00, 0x00, 0x00,
  0x14, 0x00, 0x00, 0x00, 0x1c, 0x00, 0x00, 0x00, 0x24, 0x01, 0x00, 0x00,
  0x28, 0x01, 0x00, 0x00, 0x2c, 0x01, 0x00, 0x00, 0x04, 0x00, 0x00, 0x00,
  0x6d, 0x61, 0x69, 0x6e, 0x00, 0x00, 0x00, 0x00, 0x04, 0x00, 0x00, 0x00,
  0xcc, 0x00, 0x00, 0x00, 0x84, 0x00, 0x00, 0x00, 0x50, 0x00, 0x00, 0x00,
  0x14, 0x00, 0x00, 0x00, 0x00, 0x00, 0x0e, 0x00, 0x1a, 0x00, 0x14, 0x00,
  0x10, 0x00, 0x0c, 0x00, 0x0b, 0x00, 0x04, 0x00, 0x0e, 0x00, 0x00, 0x00,
  0x1c, 0x00, 0x00, 0x00, 0x00, 0x00, 0x00, 0x09, 0x1c, 0x00, 0x00, 0x00,
  0x20, 0x00, 0x00, 0x00, 0x01, 0x00, 0x00, 0x00, 0x00, 0x00, 0x06, 0x00,
  0x08, 0x00, 0x04, 0x00, 0x06, 0x00, 0x00, 0x00, 0x00, 0x00, 0x80, 0x3f,
  0x01, 0x00, 0x00, 0x00, 0x0a, 0x00, 0x00, 0x00, 0x01, 0x00, 0x00, 0x00,
  0x09, 0x00, 0x00, 0x00, 0x9a, 0xff, 0xff, 0xff, 0x10, 0x00, 0x00, 0x00,
  0x00, 0x00, 0x00, 0x08, 0x0c, 0x00, 0x00, 0x00, 0x10, 0x00, 0x00, 0x00,
  0x2c, 0xfb, 0xff, 0xff, 0x01, 0x00, 0x00, 0x00, 0x09, 0x00, 0x00, 0x00,
  0x03, 0x00, 0x00, 0x00, 0x08, 0x00, 0x00, 0x00, 0x06, 0x00, 0x00, 0x00,
  0x02, 0x00, 0x00, 0x00, 0xca, 0xff, 0xff, 0xff, 0x10, 0x00, 0x00, 0x00,
  0x00, 0x00, 0x00, 0x08, 0x10, 0x00, 0x00, 0x00, 0x14, 0x00, 0x00, 0x00,
  0xba, 0xff, 0xff, 0xff, 0x00, 0x00, 0x00, 0x01, 0x01, 0x00, 0x00, 0x00,
  0x08, 0x00, 0x00, 0x00, 0x03, 0x00, 0x00, 0x00, 0x07, 0x00, 0x00, 0x00,
  0x05, 0x00, 0x00, 0x00, 0x03, 0x00, 0x00, 0x00, 0x00, 0x00, 0x0e, 0x00,
  0x16, 0x00, 0x00, 0x00, 0x10, 0x00, 0x0c, 0x00, 0x0b, 0x00, 0x04, 0x00,
  0x0e, 0x00, 0x00, 0x00, 0x18, 0x00, 0x00, 0x00, 0x00, 0x00, 0x00, 0x08,
  0x18, 0x00, 0x00, 0x00, 0x1c, 0x00, 0x00, 0x00, 0x00, 0x00, 0x06, 0x00,
  0x08, 0x00, 0x07, 0x00, 0x06, 0x00, 0x00, 0x00, 0x00, 0x00, 0x00, 0x01,
  0x01, 0x00, 0x00, 0x00, 0x07, 0x00, 0x00, 0x00, 0x03, 0x00, 0x00, 0x00,
  0x00, 0x00, 0x00, 0x00, 0x04, 0x00, 0x00, 0x00, 0x01, 0x00, 0x00, 0x00,
  0x01, 0x00, 0x00, 0x00, 0x0a, 0x00, 0x00, 0x00, 0x01, 0x00, 0x00, 0x00,
  0x00, 0x00, 0x00, 0x00, 0x0b, 0x00, 0x00, 0x00, 0x00, 0x04, 0x00, 0x00,
  0x98, 0x03, 0x00, 0x00, 0x30, 0x03, 0x00, 0x00, 0xd8, 0x02, 0x00, 0x00,
  0x90, 0x02, 0x00, 0x00, 0x44, 0x02, 0x00, 0x00, 0xf8, 0x01, 0x00, 0x00,
  0x68, 0x01, 0x00, 0x00, 0xd4, 0x00, 0x00, 0x00, 0x5c, 0x00, 0x00, 0x00,
  0x04, 0x00, 0x00, 0x00, 0x40, 0xfc, 0xff, 0xff, 0x14, 0x00, 0x00, 0x00,
  0x1c, 0x00, 0x00, 0x00, 0x1c, 0x00, 0x00, 0x00, 0x0b, 0x00, 0x00, 0x00,
  0x34, 0x00, 0x00, 0x00, 0x02, 0x00, 0x00, 0x00, 0xff, 0xff, 0xff, 0xff,
  0x02, 0x00, 0x00, 0x00, 0x2c, 0xfc, 0xff, 0xff, 0x19, 0x00, 0x00, 0x00,
  0x53, 0x74, 0x61, 0x74, 0x65, 0x66, 0x75, 0x6c, 0x50, 0x61, 0x72, 0x74,
  0x69, 0x74, 0x69, 0x6f, 0x6e, 0x65, 0x64, 0x43, 0x61, 0x6c, 0x6c, 0x3a,
  0x30, 0x00, 0x00, 0x00, 0x02, 0x00, 0x00, 0x00, 0x01, 0x00, 0x00, 0x00,
  0x02, 0x00, 0x00, 0x00, 0x94, 0xfc, 0xff, 0xff, 0x14, 0x00, 0x00, 0x00,
  0x1c, 0x00, 0x00, 0x00, 0x1c, 0x00, 0x00, 0x00, 0x0a, 0x00, 0x00, 0x00,
  0x54, 0x00, 0x00, 0x00, 0x02, 0x00, 0x00, 0x00, 0xff, 0xff, 0xff, 0xff,
  0x02, 0x00, 0x00, 0x00, 0x80, 0xfc, 0xff, 0xff, 0x3a, 0x00, 0x00, 0x00,
  0x73, 0x65, 0x71, 0x75, 0x65, 0x6e, 0x74, 0x69, 0x61, 0x6c, 0x5f, 0x33,
  0x2f, 0x64, 0x65, 0x6e, 0x73, 0x65, 0x5f, 0x31, 0x31, 0x2f, 0x4d, 0x61,
  0x74, 0x4d, 0x75, 0x6c, 0x3b, 0x73, 0x65, 0x71, 0x75, 0x65, 0x6e, 0x74,
  0x69, 0x61, 0x6c, 0x5f, 0x33, 0x2f, 0x64, 0x65, 0x6e, 0x73, 0x65, 0x5f,
  0x31, 0x31, 0x2f, 0x42, 0x69, 0x61, 0x73, 0x41, 0x64, 0x64, 0x00, 0x00,
  0x02, 0x00, 0x00, 0x00, 0x01, 0x00, 0x00, 0x00, 0x02, 0x00, 0x00, 0x00,
  0x08, 0xfd, 0xff, 0xff, 0x14, 0x00, 0x00, 0x00, 0x1c, 0x00, 0x00, 0x00,
  0x1c, 0x00, 0x00, 0x00, 0x09, 0x00, 0x00, 0x00, 0x70, 0x00, 0x00, 0x00,
  0x02, 0x00, 0x00, 0x00, 0xff, 0xff, 0xff, 0xff, 0x0a, 0x00, 0x00, 0x00,
  0xf4, 0xfc, 0xff, 0xff, 0x55, 0x00, 0x00, 0x00, 0x73, 0x65, 0x71, 0x75,
  0x65, 0x6e, 0x74, 0x69, 0x61, 0x6c, 0x5f, 0x33, 0x2f, 0x64, 0x65, 0x6e,
  0x73, 0x65, 0x5f, 0x31, 0x30, 0x2f, 0x4d, 0x61, 0x74, 0x4d, 0x75, 0x6c,
  0x3b, 0x73, 0x65, 0x71, 0x75, 0x65, 0x6e, 0x74, 0x69, 0x61, 0x6c, 0x5f,
  0x33, 0x2f, 0x64, 0x65, 0x6e, 0x73, 0x65, 0x5f, 0x31, 0x30, 0x2f, 0x52,
  0x65, 0x6c, 0x75, 0x3b, 0x73, 0x65, 0x71, 0x75, 0x65, 0x6e, 0x74, 0x69,
  0x61, 0x6c, 0x5f, 0x33, 0x2f, 0x64, 0x65, 0x6e, 0x73, 0x65, 0x5f, 0x31,
  0x30, 0x2f, 0x42, 0x69, 0x61, 0x73, 0x41, 0x64, 0x64, 0x00, 0x00, 0x00,
  0x02, 0x00, 0x00, 0x00, 0x01, 0x00, 0x00, 0x00, 0x0a, 0x00, 0x00, 0x00,
  0x98, 0xfd, 0xff, 0xff, 0x14, 0x00, 0x00, 0x00, 0x1c, 0x00, 0x00, 0x00,
  0x1c, 0x00, 0x00, 0x00, 0x08, 0x00, 0x00, 0x00, 0x6c, 0x00, 0x00, 0x00,
  0x02, 0x00, 0x00, 0x00, 0xff, 0xff, 0xff, 0xff, 0x0a, 0x00, 0x00, 0x00,
  0x84, 0xfd, 0xff, 0xff, 0x52, 0x00, 0x00, 0x00, 0x73, 0x65, 0x71, 0x75,
  0x65, 0x6e, 0x74, 0x69, 0x61, 0x6c, 0x5f, 0x33, 0x2f, 0x64, 0x65, 0x6e,
  0x73, 0x65, 0x5f, 0x39, 0x2f, 0x4d, 0x61, 0x74, 0x4d, 0x75, 0x6c, 0x3b,
  0x73, 0x65, 0x71, 0x75, 0x65, 0x6e, 0x74, 0x69, 0x61, 0x6c, 0x5f, 0x33,
  0x2f, 0x64, 0x65, 0x6e, 0x73, 0x65, 0x5f, 0x39, 0x2f, 0x52, 0x65, 0x6c,
  0x75, 0x3b, 0x73, 0x65, 0x71, 0x75, 0x65, 0x6e, 0x74, 0x69, 0x61, 0x6c,
  0x5f, 0x33, 0x2f, 0x64, 0x65, 0x6e, 0x73, 0x65, 0x5f, 0x39, 0x2f, 0x42,
  0x69, 0x61, 0x73, 0x41, 0x64, 0x64, 0x00, 0x00, 0x02, 0x00, 0x00, 0x00,
  0x01, 0x00, 0x00, 0x00, 0x0a, 0x00, 0x00, 0x00, 0x82, 0xfe, 0xff, 0xff,
  0x10, 0x00, 0x00, 0x00, 0x10, 0x00, 0x00, 0x00, 0x07, 0x00, 0x00, 0x00,
  0x2c, 0x00, 0x00, 0x00, 0x00, 0xfe, 0xff, 0xff, 0x1c, 0x00, 0x00, 0x00,
  0x73, 0x65, 0x71, 0x75, 0x65, 0x6e, 0x74, 0x69, 0x61, 0x6c, 0x5f, 0x33,
  0x2f, 0x64, 0x65, 0x6e, 0x73, 0x65, 0x5f, 0x31, 0x31, 0x2f, 0x4d, 0x61,
  0x74, 0x4d, 0x75, 0x6c, 0x00, 0x00, 0x00, 0x00, 0x02, 0x00, 0x00, 0x00,
  0x02, 0x00, 0x00, 0x00, 0x0a, 0x00, 0x00, 0x00, 0xca, 0xfe, 0xff, 0xff,
  0x10, 0x00, 0x00, 0x00, 0x10, 0x00, 0x00, 0x00, 0x06, 0x00, 0x00, 0x00,
  0x2c, 0x00, 0x00, 0x00, 0x48, 0xfe, 0xff, 0xff, 0x1c, 0x00, 0x00, 0x00,
  0x73, 0x65, 0x71, 0x75, 0x65, 0x6e, 0x74, 0x69, 0x61, 0x6c, 0x5f, 0x33,
  0x2f, 0x64, 0x65, 0x6e, 0x73, 0x65, 0x5f, 0x31, 0x30, 0x2f, 0x4d, 0x61,
  0x74, 0x4d, 0x75, 0x6c, 0x00, 0x00, 0x00, 0x00, 0x02, 0x00, 0x00, 0x00,
  0x0a, 0x00, 0x00, 0x00, 0x0a, 0x00, 0x00, 0x00, 0x12, 0xff, 0xff, 0xff,
  0x10, 0x00, 0x00, 0x00, 0x10, 0x00, 0x00, 0x00, 0x05, 0x00, 0x00, 0x00,
  0x28, 0x00, 0x00, 0x00, 0x90, 0xfe, 0xff, 0xff, 0x1b, 0x00, 0x00, 0x00,
  0x73, 0x65, 0x71, 0x75, 0x65, 0x6e, 0x74, 0x69, 0x61, 0x6c, 0x5f, 0x33,
  0x2f, 0x64, 0x65, 0x6e, 0x73, 0x65, 0x5f, 0x39, 0x2f, 0x4d, 0x61, 0x74,
  0x4d, 0x75, 0x6c, 0x00, 0x02, 0x00, 0x00, 0x00, 0x0a, 0x00, 0x00, 0x00,
  0x7e, 0x00, 0x00, 0x00, 0x56, 0xff, 0xff, 0xff, 0x10, 0x00, 0x00, 0x00,
  0x10, 0x00, 0x00, 0x00, 0x04, 0x00, 0x00, 0x00, 0x3c, 0x00, 0x00, 0x00,
  0xd4, 0xfe, 0xff, 0xff, 0x2c, 0x00, 0x00, 0x00, 0x73, 0x65, 0x71, 0x75,
  0x65, 0x6e, 0x74, 0x69, 0x61, 0x6c, 0x5f, 0x33, 0x2f, 0x64, 0x65, 0x6e,
  0x73, 0x65, 0x5f, 0x31, 0x30, 0x2f, 0x42, 0x69, 0x61, 0x73, 0x41, 0x64,
  0x64, 0x2f, 0x52, 0x65, 0x61, 0x64, 0x56, 0x61, 0x72, 0x69, 0x61, 0x62,
  0x6c, 0x65, 0x4f, 0x70, 0x00, 0x00, 0x00, 0x00, 0x01, 0x00, 0x00, 0x00,
  0x0a, 0x00, 0x00, 0x00, 0xaa, 0xff, 0xff, 0xff, 0x10, 0x00, 0x00, 0x00,
  0x10, 0x00, 0x00, 0x00, 0x03, 0x00, 0x00, 0x00, 0x3c, 0x00, 0x00, 0x00,
  0x28, 0xff, 0xff, 0xff, 0x2c, 0x00, 0x00, 0x00, 0x73, 0x65, 0x71, 0x75,
  0x65, 0x6e, 0x74, 0x69, 0x61, 0x6c, 0x5f, 0x33, 0x2f, 0x64, 0x65, 0x6e,
  0x73, 0x65, 0x5f, 0x31, 0x31, 0x2f, 0x42, 0x69, 0x61, 0x73, 0x41, 0x64,
  0x64, 0x2f, 0x52, 0x65, 0x61, 0x64, 0x56, 0x61, 0x72, 0x69, 0x61, 0x62,
  0x6c, 0x65, 0x4f, 0x70, 0x00, 0x00, 0x00, 0x00, 0x01, 0x00, 0x00, 0x00,
  0x02, 0x00, 0x00, 0x00, 0x00, 0x00, 0x0e, 0x00, 0x14, 0x00, 0x10, 0x00,
  0x00, 0x00, 0x0c, 0x00, 0x08, 0x00, 0x04, 0x00, 0x0e, 0x00, 0x00, 0x00,
  0x10, 0x00, 0x00, 0x00, 0x10, 0x00, 0x00, 0x00, 0x02, 0x00, 0x00, 0x00,
  0x38, 0x00, 0x00, 0x00, 0x8c, 0xff, 0xff, 0xff, 0x2b, 0x00, 0x00, 0x00,
  0x73, 0x65, 0x71, 0x75, 0x65, 0x6e, 0x74, 0x69, 0x61, 0x6c, 0x5f, 0x33,
  0x2f, 0x64, 0x65, 0x6e, 0x73, 0x65, 0x5f, 0x39, 0x2f, 0x42, 0x69, 0x61,
  0x73, 0x41, 0x64, 0x64, 0x2f, 0x52, 0x65, 0x61, 0x64, 0x56, 0x61, 0x72,
  0x69, 0x61, 0x62, 0x6c, 0x65, 0x4f, 0x70, 0x00, 0x01, 0x00, 0x00, 0x00,
  0x0a, 0x00, 0x00, 0x00, 0x14, 0x00, 0x18, 0x00, 0x14, 0x00, 0x00, 0x00,
  0x10, 0x00, 0x0c, 0x00, 0x08, 0x00, 0x00, 0x00, 0x00, 0x00, 0x04, 0x00,
  0x14, 0x00, 0x00, 0x00, 0x14, 0x00, 0x00, 0x00, 0x20, 0x00, 0x00, 0x00,
  0x20, 0x00, 0x00, 0x00, 0x01, 0x00, 0x00, 0x00, 0x3c, 0x00, 0x00, 0x00,
  0x02, 0x00, 0x00, 0x00, 0xff, 0xff, 0xff, 0xff, 0x7e, 0x00, 0x00, 0x00,
  0x04, 0x00, 0x04, 0x00, 0x04, 0x00, 0x00, 0x00, 0x1f, 0x00, 0x00, 0x00,
  0x73, 0x65, 0x72, 0x76, 0x69, 0x6e, 0x67, 0x5f, 0x64, 0x65, 0x66, 0x61,
  0x75, 0x6c, 0x74, 0x5f, 0x64, 0x65, 0x6e, 0x73, 0x65, 0x5f, 0x39, 0x5f,
  0x69, 0x6e, 0x70, 0x75, 0x74, 0x3a, 0x30, 0x00, 0x02, 0x00, 0x00, 0x00,
  0x01, 0x00, 0x00, 0x00, 0x7e, 0x00, 0x00, 0x00, 0x02, 0x00, 0x00, 0x00,
  0x20, 0x00, 0x00, 0x00, 0x04, 0x00, 0x00, 0x00, 0xf4, 0xff, 0xff, 0xff,
  0x19, 0x00, 0x00, 0x00, 0x00, 0x00, 0x00, 0x19, 0x0c, 0x00, 0x0c, 0x00,
  0x0b, 0x00, 0x00, 0x00, 0x00, 0x00, 0x04, 0x00, 0x0c, 0x00, 0x00, 0x00,
  0x09, 0x00, 0x00, 0x00, 0x00, 0x00, 0x00, 0x09
};
