const unsigned char model[] = {
  0x1c, 0x00, 0x00, 0x00, 0x54, 0x46, 0x4c, 0x33, 0x14, 0x00, 0x20, 0x00,
  0x1c, 0x00, 0x18, 0x00, 0x14, 0x00, 0x10, 0x00, 0x0c, 0x00, 0x00, 0x00,
  0x08, 0x00, 0x04, 0x00, 0x14, 0x00, 0x00, 0x00, 0x1c, 0x00, 0x00, 0x00,
  0x98, 0x00, 0x00, 0x00, 0xf0, 0x00, 0x00, 0x00, 0x28, 0x17, 0x00, 0x00,
  0x38, 0x17, 0x00, 0x00, 0x08, 0x1d, 0x00, 0x00, 0x03, 0x00, 0x00, 0x00,
  0x01, 0x00, 0x00, 0x00, 0x10, 0x00, 0x00, 0x00, 0x00, 0x00, 0x0a, 0x00,
  0x10, 0x00, 0x0c, 0x00, 0x08, 0x00, 0x04, 0x00, 0x0a, 0x00, 0x00, 0x00,
  0x0c, 0x00, 0x00, 0x00, 0x1c, 0x00, 0x00, 0x00, 0x3c, 0x00, 0x00, 0x00,
  0x0f, 0x00, 0x00, 0x00, 0x73, 0x65, 0x72, 0x76, 0x69, 0x6e, 0x67, 0x5f,
  0x64, 0x65, 0x66, 0x61, 0x75, 0x6c, 0x74, 0x00, 0x01, 0x00, 0x00, 0x00,
  0x04, 0x00, 0x00, 0x00, 0x90, 0xff, 0xff, 0xff, 0x0a, 0x00, 0x00, 0x00,
  0x04, 0x00, 0x00, 0x00, 0x08, 0x00, 0x00, 0x00, 0x64, 0x65, 0x6e, 0x73,
  0x65, 0x5f, 0x36, 0x38, 0x00, 0x00, 0x00, 0x00, 0x01, 0x00, 0x00, 0x00,
  0x04, 0x00, 0x00, 0x00, 0xbe, 0xe8, 0xff, 0xff, 0x04, 0x00, 0x00, 0x00,
  0x0e, 0x00, 0x00, 0x00, 0x64, 0x65, 0x6e, 0x73, 0x65, 0x5f, 0x36, 0x36,
  0x5f, 0x69, 0x6e, 0x70, 0x75, 0x74, 0x00, 0x00, 0x02, 0x00, 0x00, 0x00,
  0x34, 0x00, 0x00, 0x00, 0x04, 0x00, 0x00, 0x00, 0xdc, 0xff, 0xff, 0xff,
  0x0d, 0x00, 0x00, 0x00, 0x04, 0x00, 0x00, 0x00, 0x13, 0x00, 0x00, 0x00,
  0x43, 0x4f, 0x4e, 0x56, 0x45, 0x52, 0x53, 0x49, 0x4f, 0x4e, 0x5f, 0x4d,
  0x45, 0x54, 0x41, 0x44, 0x41, 0x54, 0x41, 0x00, 0x08, 0x00, 0x0c, 0x00,
  0x08, 0x00, 0x04, 0x00, 0x08, 0x00, 0x00, 0x00, 0x0c, 0x00, 0x00, 0x00,
  0x04, 0x00, 0x00, 0x00, 0x13, 0x00, 0x00, 0x00, 0x6d, 0x69, 0x6e, 0x5f,
  0x72, 0x75, 0x6e, 0x74, 0x69, 0x6d, 0x65, 0x5f, 0x76, 0x65, 0x72, 0x73,
  0x69, 0x6f, 0x6e, 0x00, 0x0e, 0x00, 0x00, 0x00, 0x34, 0x16, 0x00, 0x00,
  0x2c, 0x16, 0x00, 0x00, 0x10, 0x16, 0x00, 0x00, 0xd8, 0x15, 0x00, 0x00,
  0xa0, 0x15, 0x00, 0x00, 0xd0, 0x02, 0x00, 0x00, 0x30, 0x01, 0x00, 0x00,
  0xa8, 0x00, 0x00, 0x00, 0xa0, 0x00, 0x00, 0x00, 0x98, 0x00, 0x00, 0x00,
  0x90, 0x00, 0x00, 0x00, 0x88, 0x00, 0x00, 0x00, 0x68, 0x00, 0x00, 0x00,
  0x04, 0x00, 0x00, 0x00, 0x72, 0xe9, 0xff, 0xff, 0x04, 0x00, 0x00, 0x00,
  0x54, 0x00, 0x00, 0x00, 0x0c, 0x00, 0x00, 0x00, 0x08, 0x00, 0x0e, 0x00,
  0x08, 0x00, 0x04, 0x00, 0x08, 0x00, 0x00, 0x00, 0x10, 0x00, 0x00, 0x00,
  0x24, 0x00, 0x00, 0x00, 0x00, 0x00, 0x06, 0x00, 0x08, 0x00, 0x04, 0x00,
  0x06, 0x00, 0x00, 0x00, 0x04, 0x00, 0x00, 0x00, 0x00, 0x00, 0x00, 0x00,
  0x00, 0x00, 0x0a, 0x00, 0x10, 0x00, 0x0c, 0x00, 0x08, 0x00, 0x04, 0x00,
  0x0a, 0x00, 0x00, 0x00, 0x02, 0x00, 0x00, 0x00, 0x02, 0x00, 0x00, 0x00,
  0x04, 0x00, 0x00, 0x00, 0x05, 0x00, 0x00, 0x00, 0x32, 0x2e, 0x39, 0x2e,
  0x32, 0x00, 0x00, 0x00, 0xd2, 0xe9, 0xff, 0xff, 0x04, 0x00, 0x00, 0x00,
  0x10, 0x00, 0x00, 0x00, 0x31, 0x2e, 0x35, 0x2e, 0x30, 0x00, 0x00, 0x00,
  0x00, 0x00, 0x00, 0x00, 0x00, 0x00, 0x00, 0x00, 0xd0, 0xe4, 0xff, 0xff,
  0xd4, 0xe4, 0xff, 0xff, 0xd8, 0xe4, 0xff, 0xff, 0xdc, 0xe4, 0xff, 0xff,
  0xfe, 0xe9, 0xff, 0xff, 0x04, 0x00, 0x00, 0x00, 0x78, 0x00, 0x00, 0x00,
  0xf7, 0x2c, 0x09, 0xbf, 0xed, 0xbd, 0x04, 0xbf, 0x7b, 0x71, 0x4d, 0x3f,
  0xe3, 0xf5, 0x07, 0x3f, 0xbd, 0x7e, 0xec, 0xbe, 0x87, 0xa2, 0x96, 0x3e,
  0x4f, 0x08, 0xa7, 0xbd, 0x5d, 0x0e, 0x37, 0x3f, 0xeb, 0x60, 0xd8, 0xbf,
  0x5e, 0x0e, 0x38, 0x3f, 0x56, 0xaa, 0x30, 0xbe, 0xdf, 0x34, 0xc3, 0x3e,
  0xdd, 0xd1, 0xc4, 0x3d, 0x79, 0x57, 0x0b, 0xbe, 0xf1, 0x83, 0xc5, 0x3e,
  0x5a, 0xfa, 0x20, 0xbf, 0x02, 0xcf, 0x4c, 0xbe, 0xba, 0xef, 0x10, 0xbf,
  0x93, 0x9c, 0x58, 0x3f, 0xea, 0xb8, 0xcf, 0xbf, 0xff, 0x96, 0xc6, 0xbe,
  0xc3, 0x17, 0xcd, 0x3e, 0x90, 0x50, 0xf3, 0xbe, 0xfd, 0x89, 0x3c, 0xbf,
  0x31, 0x71, 0x66, 0xbf, 0x3c, 0x75, 0xd8, 0x3e, 0xe1, 0xa0, 0x67, 0x3f,
  0xf8, 0x83, 0x4e, 0x3e, 0xce, 0x92, 0x66, 0xbf, 0x9f, 0x5b, 0x80, 0x3f,
  0x82, 0xea, 0xff, 0xff, 0x04, 0x00, 0x00, 0x00, 0x90, 0x01, 0x00, 0x00,
  0xed, 0x6c, 0xdc, 0xbc, 0xa0, 0xa7, 0x81, 0xb7, 0x68, 0x16, 0x8c, 0xb8,
  0xe1, 0xf7, 0x33, 0x39, 0x00, 0x00, 0x5c, 0x36, 0xc0, 0xb2, 0x4a, 0x3c,
  0x85, 0x92, 0x05, 0xb8, 0xdd, 0x1c, 0xbe, 0x37, 0x5f, 0x19, 0xe5, 0xb9,
  0x36, 0x5a, 0x21, 0xb9, 0xe3, 0x39, 0x95, 0x3e, 0xef, 0xe4, 0x03, 0xb9,
  0x6a, 0x66, 0xc3, 0x3e, 0x06, 0xca, 0xad, 0xb9, 0xcb, 0xac, 0xd0, 0x38,
  0x92, 0x60, 0x84, 0xbe, 0x64, 0x09, 0x94, 0x39, 0x69, 0x98, 0x09, 0x39,
  0x8f, 0xbe, 0x89, 0xb9, 0x29, 0xb6, 0x10, 0x3f, 0x6e, 0x8d, 0x67, 0x3e,
  0xf0, 0x2e, 0xe2, 0x38, 0x69, 0xe5, 0xfc, 0xb7, 0x2d, 0x6e, 0x36, 0xb8,
  0xcd, 0xaf, 0xdf, 0x37, 0x04, 0xca, 0x66, 0x3e, 0xc8, 0x72, 0x09, 0xba,
  0x3a, 0xc9, 0x15, 0xb9, 0xc0, 0xf4, 0x62, 0x35, 0xca, 0xc4, 0xb7, 0xbe,
  0x37, 0xa7, 0xaa, 0x3e, 0x52, 0xb0, 0xd0, 0xb8, 0xe1, 0xc1, 0x94, 0x37,
  0x17, 0x09, 0x99, 0xb8, 0x30, 0xa7, 0x53, 0x36, 0x05, 0x20, 0x5f, 0x3e,
  0x00, 0xef, 0xaa, 0xb7, 0x30, 0x6c, 0x2b, 0x38, 0x68, 0x55, 0x6d, 0x39,
  0x4c, 0x9e, 0xe9, 0xbe, 0x45, 0x87, 0x51, 0xbe, 0xeb, 0x20, 0x1d, 0xb9,
  0x05, 0x78, 0x44, 0xbe, 0xf6, 0xbe, 0x64, 0xb9, 0x73, 0x66, 0xf0, 0x38,
  0x87, 0x6d, 0x5d, 0xbe, 0xb0, 0x79, 0xc2, 0xb6, 0xb1, 0x39, 0x35, 0xb9,
  0xdf, 0x39, 0x88, 0x38, 0x24, 0xd5, 0xd7, 0x3e, 0x6f, 0x38, 0x06, 0x3f,
  0x33, 0x12, 0xd2, 0x38, 0x39, 0x80, 0x86, 0x3e, 0x4a, 0x0f, 0x28, 0xb9,
  0x40, 0xd1, 0xd1, 0x38, 0xa0, 0x2e, 0xbf, 0x3e, 0x5b, 0xa8, 0x31, 0x38,
  0xad, 0x58, 0xac, 0x39, 0xa7, 0xf5, 0x94, 0x39, 0x3f, 0x62, 0x8b, 0xbe,
  0x6d, 0x27, 0x6f, 0x3b, 0xe9, 0xe2, 0x5f, 0x39, 0xc0, 0x6d, 0x28, 0x39,
  0xb4, 0xe9, 0x66, 0xb8, 0xd4, 0xcd, 0xa4, 0xb9, 0x50, 0x3e, 0xd9, 0x39,
  0xda, 0x22, 0x5a, 0xb8, 0xc8, 0x5b, 0x2f, 0xb9, 0x30, 0xaa, 0xa8, 0xb8,
  0xa0, 0x77, 0x9b, 0x3a, 0x9f, 0x86, 0xc9, 0xb7, 0xa0, 0x47, 0xa2, 0x37,
  0x90, 0x02, 0x17, 0xb7, 0x1a, 0xa7, 0x8e, 0xb9, 0x38, 0xa0, 0x2f, 0x38,
  0x6f, 0x5f, 0x83, 0xb7, 0x56, 0xa8, 0x79, 0xb8, 0xd0, 0x58, 0x37, 0x38,
  0x50, 0xc4, 0xef, 0xb7, 0x04, 0xc6, 0x55, 0xb7, 0x00, 0x5f, 0x8f, 0xb6,
  0x40, 0x10, 0xce, 0xb8, 0x0e, 0xfe, 0xeb, 0xbe, 0xe7, 0x9f, 0x1b, 0xb8,
  0xb8, 0x68, 0x3f, 0x38, 0x57, 0x38, 0x9c, 0xbc, 0x25, 0x3f, 0xbf, 0xb8,
  0x96, 0x54, 0xce, 0xb8, 0x62, 0xa9, 0x1a, 0x39, 0x2f, 0x02, 0xbb, 0x3e,
  0x8b, 0x99, 0x98, 0x3d, 0x7a, 0x11, 0x54, 0x39, 0x6c, 0x09, 0xb9, 0x39,
  0x81, 0x57, 0xf9, 0xb8, 0xdf, 0x6e, 0x67, 0xb9, 0xf9, 0xb4, 0xbb, 0x3e,
  0xfa, 0xc2, 0x0d, 0xb9, 0x62, 0xbe, 0x02, 0xb9, 0xf2, 0x20, 0xc1, 0xb7,
  0x26, 0x94, 0x7b, 0xbb, 0x1e, 0xec, 0xff, 0xff, 0x04, 0x00, 0x00, 0x00,
  0xc0, 0x12, 0x00, 0x00, 0x70, 0x8d, 0xd6, 0x3d, 0x07, 0xfd, 0x9f, 0xbd,
  0xcc, 0xde, 0x9b, 0xbd, 0x43, 0x4d, 0xac, 0x3d, 0x02, 0xae, 0x38, 0x3e,
  0xc5, 0x2c, 0x22, 0xbe, 0xa2, 0xad, 0x56, 0xbd, 0x71, 0x96, 0x5f, 0x3d,
  0xe1, 0x6f, 0x1b, 0xbe, 0x6d, 0x44, 0x45, 0x3e, 0x94, 0x0b, 0x47, 0x3e,
  0x33, 0xaa, 0xa8, 0x3d, 0x31, 0x0c, 0xc3, 0x3d, 0xd4, 0x5e, 0xca, 0x3d,
  0x6d, 0xd4, 0xa6, 0x3d, 0xb2, 0xf0, 0x89, 0x3e, 0x02, 0xe9, 0x84, 0xbd,
  0x8a, 0x52, 0xea, 0x3d, 0x18, 0x5e, 0xe5, 0x3d, 0xfa, 0x09, 0x12, 0x3e,
  0x34, 0x76, 0xac, 0xbd, 0x3d, 0xae, 0x74, 0x3e, 0x66, 0x2c, 0x64, 0x3e,
  0x37, 0xa3, 0x79, 0xbe, 0x09, 0xdf, 0x76, 0x3e, 0x19, 0x9c, 0x72, 0x3e,
  0x64, 0x3f, 0x0f, 0x3e, 0xee, 0x88, 0xf7, 0x3d, 0x3b, 0xac, 0x80, 0x3e,
  0x46, 0xd4, 0xff, 0x3d, 0xaf, 0xff, 0x7c, 0x3e, 0xc5, 0xff, 0x48, 0x3d,
  0xd8, 0x58, 0x59, 0xbe, 0xee, 0xd2, 0x8b, 0x3e, 0xa6, 0x40, 0x54, 0x3c,
  0xe9, 0xd7, 0x68, 0x3d, 0x82, 0x43, 0x5d, 0x3d, 0xad, 0x2f, 0x4a, 0x3e,
  0xe3, 0x0f, 0x45, 0xbe, 0x8d, 0x3e, 0xbf, 0x3d, 0xc4, 0x06, 0x62, 0x3e,
  0x51, 0x1c, 0x1b, 0xbe, 0x41, 0x68, 0x98, 0x3e, 0x12, 0xb5, 0xd1, 0xbd,
  0x99, 0xce, 0xdc, 0xbd, 0x82, 0xd3, 0x8f, 0x3e, 0x9e, 0x82, 0xdd, 0x3d,
  0xee, 0x44, 0x15, 0x3d, 0xa6, 0x7b, 0x1d, 0x3e, 0x3d, 0xb2, 0x63, 0xbd,
  0x01, 0xdf, 0xfe, 0xbd, 0xa8, 0x02, 0x3a, 0x3d, 0x9d, 0xb1, 0x00, 0x3e,
  0x23, 0xb5, 0xc8, 0x3d, 0xb2, 0x5a, 0x8e, 0x3e, 0xc5, 0xc0, 0x8c, 0x3e,
  0xe1, 0xa2, 0x26, 0xbe, 0x45, 0x5f, 0xa6, 0x3e, 0x73, 0x02, 0x20, 0x3e,
  0x81, 0xab, 0x37, 0xbe, 0x67, 0x27, 0xc6, 0xbc, 0x9d, 0x8a, 0x7a, 0xbd,
  0xf3, 0x67, 0xc7, 0xbd, 0xb4, 0xf8, 0x8a, 0x3e, 0xe6, 0x31, 0xd6, 0x3d,
  0x7d, 0xc5, 0x74, 0x3d, 0xb1, 0x90, 0xb0, 0xbd, 0xd8, 0x7a, 0x39, 0x3e,
  0x5b, 0xdc, 0x03, 0x3e, 0x52, 0x58, 0x51, 0xbd, 0x9d, 0x53, 0x92, 0x3e,
  0x87, 0xb9, 0xda, 0x3d, 0x15, 0x5d, 0x87, 0x3e, 0xef, 0x83, 0x26, 0x3e,
  0x9e, 0xfd, 0x84, 0x3c, 0x5a, 0xbd, 0x66, 0x3e, 0x7f, 0xee, 0xdc, 0xbd,
  0x2e, 0x75, 0x1f, 0x3e, 0x39, 0xaf, 0x40, 0x3e, 0x43, 0x31, 0xa4, 0x3d,
  0xd2, 0x83, 0x17, 0x3e, 0xcb, 0xc4, 0xd0, 0x3c, 0x2e, 0x44, 0x1f, 0x3e,
  0x78, 0x35, 0x68, 0xbd, 0x7b, 0x68, 0x77, 0x3e, 0x41, 0x0f, 0x59, 0x3d,
  0x17, 0x0c, 0x04, 0xbe, 0xd1, 0x77, 0xa1, 0x3d, 0xc0, 0x1f, 0x0d, 0x3e,
  0x77, 0x01, 0x7b, 0xbe, 0x62, 0xa0, 0x0f, 0xbd, 0xcc, 0x4d, 0x74, 0xbc,
  0xe5, 0xe7, 0x73, 0xbe, 0xf4, 0x3a, 0x4e, 0x3d, 0x1f, 0x12, 0xef, 0x3d,
  0xd8, 0x96, 0x0f, 0xbe, 0x12, 0x13, 0x9f, 0x3d, 0xa5, 0xf5, 0xcc, 0x3d,
  0x96, 0xea, 0x28, 0x3e, 0xe1, 0xcb, 0x80, 0x3e, 0xbd, 0xea, 0x59, 0x3e,
  0x95, 0x43, 0xc1, 0xbc, 0xdc, 0x9a, 0x8a, 0xbd, 0x58, 0xfe, 0xe8, 0xbd,
  0x85, 0x7e, 0x3e, 0xbe, 0xf9, 0xb9, 0xb5, 0x3c, 0x02, 0xb6, 0x5e, 0x3e,
  0x7e, 0xb9, 0xde, 0x3d, 0x96, 0xca, 0x57, 0xbc, 0xe6, 0xd2, 0x82, 0x3e,
  0xc8, 0x60, 0xca, 0xbd, 0x70, 0xd4, 0x7f, 0x3e, 0xfe, 0xab, 0xe1, 0xbd,
  0x0f, 0xea, 0xf4, 0xbc, 0xd7, 0x28, 0xa6, 0xbc, 0xb4, 0x24, 0x9f, 0xbc,
  0xf0, 0x5a, 0x7d, 0xbd, 0x59, 0xbd, 0x88, 0x3d, 0x55, 0xed, 0x5b, 0xbd,
  0xf2, 0x92, 0x33, 0xbe, 0x00, 0x06, 0xcf, 0x3b, 0xe6, 0x4d, 0x9f, 0x3d,
  0xfa, 0x2a, 0xa8, 0x3d, 0x00, 0x0c, 0xf9, 0xbb, 0xb4, 0x25, 0x44, 0x3d,
  0xc0, 0xff, 0x42, 0x3b, 0x40, 0x1a, 0x23, 0x3b, 0xd6, 0x4a, 0xc5, 0x3d,
  0x7a, 0x1c, 0x43, 0xbe, 0xc6, 0xa9, 0x9a, 0x3d, 0x27, 0xba, 0x3d, 0xbe,
  0x87, 0x14, 0x50, 0x3e, 0x66, 0x64, 0x9f, 0xbd, 0x06, 0xdf, 0x03, 0xbe,
  0x08, 0xd3, 0x6c, 0xbd, 0x60, 0x0c, 0x95, 0x3b, 0xd9, 0xdf, 0x39, 0xbe,
  0x5a, 0xa7, 0xe4, 0x3d, 0xfd, 0xbc, 0x4a, 0x3e, 0xb2, 0x9a, 0x0d, 0xbe,
  0x3a, 0xe3, 0x23, 0xbe, 0xa0, 0x7e, 0x37, 0xbc, 0x3e, 0xf8, 0x3e, 0xbe,
  0x50, 0x71, 0x06, 0xbe, 0x04, 0xd9, 0x8e, 0xbd, 0x68, 0x0e, 0x93, 0xbc,
  0xf3, 0xf7, 0x51, 0x3e, 0xf7, 0x01, 0x33, 0x3e, 0xc0, 0xc0, 0xfa, 0xbc,
  0x67, 0x54, 0x49, 0x3e, 0xc2, 0x82, 0x46, 0xbe, 0x96, 0x2c, 0x54, 0xbe,
  0x6f, 0x97, 0x24, 0x3e, 0x10, 0x52, 0xa4, 0xbd, 0xa0, 0x18, 0xc2, 0xbc,
  0x7d, 0xbb, 0x3a, 0xbe, 0x59, 0x10, 0x39, 0x3e, 0x1f, 0xe1, 0xbe, 0xbd,
  0x90, 0xae, 0x47, 0x3c, 0x34, 0xe8, 0xed, 0xbd, 0x91, 0x46, 0xee, 0xbd,
  0x9c, 0xa7, 0x44, 0xbe, 0x65, 0xb3, 0x42, 0x3e, 0x78, 0x35, 0xc0, 0x3c,
  0xb4, 0x48, 0x56, 0x3d, 0x42, 0x5c, 0xc4, 0x3d, 0x1e, 0x23, 0xfb, 0x3d,
  0x0c, 0x04, 0xa1, 0xbd, 0x28, 0x15, 0xe2, 0x3c, 0x9e, 0x9f, 0x2e, 0xbe,
  0x64, 0xfd, 0x14, 0x3d, 0x02, 0xf8, 0x10, 0xbe, 0xc8, 0xca, 0x87, 0xbc,
  0xe2, 0xac, 0x8b, 0x3d, 0x0c, 0x3b, 0x6c, 0x3d, 0xc2, 0xa4, 0x1b, 0xbe,
  0x80, 0x2a, 0xf4, 0xbb, 0x21, 0xc7, 0x5a, 0xbe, 0x43, 0x01, 0xbd, 0xbd,
  0x7d, 0xc7, 0x3e, 0x3e, 0x34, 0x85, 0x7a, 0x3d, 0x7d, 0x6e, 0xf6, 0xbd,
  0x19, 0xf7, 0x29, 0x3e, 0x43, 0xc9, 0x52, 0x3e, 0xce, 0x7b, 0x21, 0xbe,
  0x81, 0x8d, 0x1c, 0xbe, 0xa8, 0x52, 0x16, 0xbe, 0x60, 0x03, 0xac, 0x3c,
  0xf4, 0x25, 0x35, 0xbe, 0xfa, 0x98, 0x9f, 0x3d, 0x66, 0x86, 0x0e, 0xbe,
  0x71, 0xdc, 0x48, 0xbe, 0xac, 0x1f, 0x26, 0x3d, 0x00, 0x6a, 0x72, 0x3a,
  0x55, 0x5c, 0x07, 0x3e, 0x00, 0x3e, 0x28, 0x3c, 0xda, 0x0c, 0x05, 0xbe,
  0xfe, 0x1a, 0xd7, 0x3d, 0x82, 0x40, 0xf2, 0x3d, 0x79, 0x55, 0xc9, 0xbd,
  0x40, 0xd6, 0x5f, 0x3b, 0x54, 0xa6, 0x53, 0xbe, 0xc3, 0x10, 0xcc, 0xbd,
  0xb7, 0xd3, 0x0f, 0xbe, 0x47, 0x55, 0xde, 0xbd, 0x4a, 0x5a, 0x07, 0xbe,
  0x24, 0x4b, 0x19, 0xbe, 0xac, 0x3e, 0x3b, 0x3d, 0x7c, 0xfe, 0x47, 0xbd,
  0x85, 0xbe, 0x4c, 0x3e, 0xac, 0xe2, 0x08, 0x3d, 0x28, 0xa7, 0xbe, 0x3c,
  0x4e, 0x6e, 0xb7, 0x3d, 0x10, 0x3b, 0x42, 0xbe, 0x0f, 0x7f, 0x0f, 0x3e,
  0x4f, 0x14, 0x48, 0xbe, 0x71, 0x67, 0x4a, 0xbe, 0x9f, 0x85, 0x35, 0x3e,
  0x2e, 0xdf, 0x27, 0xbe, 0xda, 0x62, 0xb4, 0x3d, 0x4f, 0x8f, 0xea, 0xbd,
  0x06, 0xf1, 0x80, 0xbd, 0xae, 0x58, 0xd9, 0x3d, 0xbb, 0xc8, 0x5a, 0x3e,
  0xb4, 0x2d, 0x0d, 0x3d, 0x22, 0x53, 0xb8, 0x3d, 0xce, 0xc4, 0xfb, 0x3d,
  0x94, 0x17, 0x04, 0xbe, 0x90, 0x36, 0x29, 0x3c, 0xf0, 0x38, 0x86, 0x3c,
  0x82, 0x22, 0xd8, 0x3d, 0xd5, 0xc7, 0xe8, 0xbd, 0x5f, 0x6a, 0xfe, 0xbd,
  0xa6, 0xfb, 0xd3, 0x3d, 0xa0, 0xb3, 0x97, 0xbb, 0xc0, 0xb7, 0x3a, 0xbd,
  0x2a, 0x30, 0xeb, 0x3d, 0x60, 0xbc, 0xe1, 0xbd, 0xf0, 0x15, 0xd8, 0xbc,
  0x07, 0x58, 0x04, 0x3e, 0x4c, 0x94, 0x84, 0x3e, 0x19, 0xa8, 0x8b, 0x3d,
  0x77, 0xd8, 0x84, 0x3d, 0xa3, 0x7e, 0x6a, 0x3c, 0xbf, 0x19, 0xbe, 0xbd,
  0x19, 0x65, 0xcb, 0x3d, 0x87, 0x2c, 0x1a, 0x3e, 0xf1, 0xe9, 0x06, 0x3e,
  0x22, 0xdb, 0x40, 0x3e, 0x92, 0x8c, 0x9a, 0x3d, 0xcb, 0x6f, 0xfa, 0xbd,
  0xbb, 0x93, 0x64, 0xbe, 0x68, 0xcc, 0x9c, 0xbd, 0x2e, 0x52, 0xc7, 0xbd,
  0x8a, 0x69, 0x2d, 0xbe, 0x3a, 0x02, 0x6d, 0x3d, 0xfa, 0xa5, 0x3c, 0xbe,
  0x3d, 0x8c, 0xf8, 0x3d, 0x22, 0xac, 0xa2, 0x3c, 0x0e, 0xc3, 0x49, 0x3e,
  0x25, 0x96, 0xb7, 0xbd, 0x9f, 0xa7, 0xf7, 0x3d, 0x10, 0xde, 0x6c, 0x3d,
  0xa9, 0xdb, 0xfa, 0x3c, 0xba, 0x26, 0xa9, 0x3e, 0x5d, 0x6c, 0xb9, 0xbd,
  0x6f, 0xf1, 0x8b, 0x3d, 0x2c, 0xfb, 0xbd, 0xbd, 0x4d, 0x3d, 0x20, 0x3e,
  0x80, 0x3b, 0x64, 0xbd, 0xc9, 0x16, 0xba, 0x3e, 0x13, 0x86, 0x04, 0x3e,
  0xf6, 0x41, 0x39, 0x3e, 0x09, 0xae, 0x66, 0x3e, 0x51, 0x1e, 0x53, 0x3e,
  0xdb, 0x62, 0x14, 0x3e, 0x08, 0x08, 0x17, 0xbe, 0xea, 0x9d, 0x42, 0x3e,
  0xe0, 0x46, 0x14, 0xbe, 0xaa, 0xa9, 0x0d, 0xbd, 0x7b, 0x92, 0xaf, 0xbd,
  0x9a, 0x54, 0xdb, 0xbd, 0x04, 0xc2, 0x77, 0xbd, 0xfc, 0xb1, 0x2a, 0x3e,
  0x93, 0x9c, 0x0a, 0xbd, 0xe6, 0x81, 0x67, 0x3e, 0x9d, 0x20, 0xcf, 0xbc,
  0x05, 0xc9, 0x4c, 0x3e, 0xa2, 0x71, 0x0d, 0x3e, 0xd3, 0xf8, 0x70, 0xbd,
  0x71, 0x9b, 0x28, 0xbe, 0x73, 0x5c, 0xe0, 0x3d, 0x6d, 0xc1, 0x2d, 0x3d,
  0x66, 0xdd, 0x2d, 0x3b, 0x64, 0x4d, 0x99, 0xbd, 0xa9, 0xc2, 0xe8, 0xbd,
  0xf6, 0x4f, 0x28, 0x3c, 0xa7, 0x4b, 0x3c, 0x3e, 0xb8, 0x05, 0x2e, 0xbc,
  0xed, 0x9d, 0xa1, 0xbe, 0x15, 0xf4, 0x36, 0x3e, 0xa3, 0x81, 0x25, 0xbe,
  0x3c, 0x61, 0xa1, 0x3c, 0x40, 0xa9, 0xd6, 0x3d, 0xec, 0x0d, 0x2f, 0xbe,
  0x4e, 0x6d, 0x7e, 0x3d, 0x98, 0x0e, 0xde, 0x3d, 0x07, 0xe7, 0x22, 0xbe,
  0x4b, 0xd9, 0xb5, 0x3b, 0x2f, 0xd2, 0x28, 0x3e, 0x61, 0x40, 0x79, 0x3e,
  0x68, 0xe4, 0xbf, 0x3b, 0x53, 0x31, 0xe3, 0x3d, 0x2a, 0x74, 0xea, 0x3d,
  0x7e, 0x50, 0xba, 0x3d, 0xb3, 0xf0, 0x69, 0x3e, 0x56, 0x91, 0x59, 0x3e,
  0x3d, 0x29, 0x6d, 0x3d, 0xe0, 0x01, 0x22, 0xbe, 0x0f, 0xf5, 0x66, 0x3e,
  0x3d, 0xf8, 0x1a, 0x3e, 0x63, 0xa3, 0x4e, 0x3e, 0x00, 0xb9, 0x38, 0xbe,
  0xc3, 0xf3, 0x99, 0xbd, 0x9a, 0x70, 0x18, 0xbd, 0x65, 0x99, 0x1c, 0xbe,
  0x35, 0x5a, 0x34, 0xbd, 0x2a, 0x91, 0x83, 0x3c, 0xe5, 0x17, 0xb8, 0xbd,
  0x96, 0x75, 0x4c, 0xbe, 0x43, 0x65, 0xac, 0x3d, 0x8e, 0xec, 0xc5, 0xbd,
  0x43, 0xe5, 0x31, 0x3e, 0xa9, 0xf5, 0x33, 0x3e, 0x56, 0x91, 0x2e, 0x3e,
  0x8e, 0x51, 0x00, 0xbe, 0xb3, 0x68, 0x14, 0x3e, 0x9b, 0x67, 0xb1, 0xbb,
  0xa4, 0xfd, 0x03, 0x3d, 0x6e, 0xb5, 0x03, 0x3d, 0x23, 0xea, 0x19, 0x3e,
  0x4b, 0xe9, 0x3e, 0xbe, 0x4e, 0xc5, 0xe2, 0xbc, 0x87, 0xf8, 0xe6, 0xbc,
  0xd6, 0x2d, 0x77, 0xbe, 0x49, 0x63, 0x24, 0x3e, 0x5f, 0xe2, 0x86, 0xbd,
  0x55, 0x9d, 0x0d, 0xbe, 0x99, 0x01, 0x53, 0xbd, 0xe7, 0x50, 0x03, 0x3e,
  0x65, 0xde, 0x04, 0xbe, 0x67, 0x2a, 0x02, 0x3e, 0xc3, 0xa2, 0x83, 0x3d,
  0x32, 0xdf, 0x49, 0xbe, 0x51, 0xd3, 0x39, 0x3e, 0xba, 0x39, 0x53, 0x3e,
  0xab, 0x56, 0xb1, 0x3c, 0x71, 0xbf, 0x63, 0x3d, 0x5b, 0x52, 0x87, 0x3d,
  0x7c, 0xee, 0xc4, 0xbc, 0xb2, 0xd0, 0xff, 0x3d, 0x60, 0x60, 0xa2, 0xbb,
  0xc2, 0x4b, 0x96, 0x3d, 0xf8, 0x78, 0x5f, 0xbd, 0x98, 0x8f, 0xda, 0xbc,
  0x5f, 0x15, 0x54, 0xbe, 0xe8, 0x31, 0x1d, 0xbe, 0xd0, 0xae, 0x21, 0xbe,
  0x3a, 0x24, 0x8a, 0x3d, 0xb4, 0xf4, 0x68, 0x3d, 0xe2, 0xaa, 0xf2, 0x3d,
  0x15, 0x06, 0x4a, 0xbe, 0x85, 0x49, 0x28, 0x3e, 0xd7, 0xcf, 0x0c, 0x3e,
  0x10, 0x45, 0x40, 0xbe, 0xa1, 0xd5, 0xbf, 0xbd, 0xed, 0xab, 0x01, 0x3e,
  0x60, 0x6b, 0xfe, 0xbb, 0x29, 0x5f, 0x44, 0x3e, 0x32, 0x7a, 0xda, 0x3d,
  0x10, 0xd8, 0x37, 0xbd, 0xb0, 0x93, 0x00, 0xbe, 0xc2, 0xc1, 0xe5, 0xbd,
  0xbf, 0x55, 0x12, 0xbe, 0xd4, 0x02, 0x03, 0xbe, 0x75, 0xc0, 0x3a, 0xbe,
  0x9a, 0x6a, 0xae, 0xbd, 0x41, 0xac, 0x2f, 0x3e, 0x48, 0x43, 0x49, 0xbe,
  0xe3, 0x67, 0xd2, 0xbd, 0xb0, 0xae, 0x86, 0x3c, 0x3c, 0xd1, 0x28, 0x3d,
  0x7c, 0x27, 0x0f, 0x3d, 0x8c, 0xf5, 0x08, 0xbe, 0x6c, 0x5b, 0x02, 0x3d,
  0x50, 0x80, 0x72, 0xbc, 0x17, 0x65, 0x29, 0xbe, 0x73, 0x59, 0x2a, 0x3e,
  0x53, 0x47, 0x0a, 0x3e, 0x00, 0x62, 0x8a, 0xbc, 0x84, 0xc5, 0x3f, 0xbe,
  0x08, 0xba, 0xdd, 0xbd, 0x75, 0x9a, 0x26, 0x3e, 0x63, 0x95, 0x1d, 0x3e,
  0xaf, 0x80, 0x36, 0xbe, 0x9e, 0xd7, 0x06, 0xbe, 0xf4, 0xbc, 0x30, 0x3d,
  0x64, 0xb5, 0x77, 0x3d, 0x9d, 0x44, 0x23, 0x3e, 0x7d, 0xe9, 0xba, 0xbd,
  0x4a, 0xed, 0x39, 0xbe, 0x4a, 0x00, 0x92, 0x3d, 0xfe, 0xd9, 0x46, 0xbe,
  0x98, 0x12, 0xfb, 0x3c, 0x88, 0x8f, 0x8a, 0x3c, 0x42, 0x7a, 0xd1, 0x3d,
  0xca, 0xc3, 0x1b, 0xbe, 0xfc, 0xdc, 0x24, 0xbd, 0x50, 0xc5, 0x0b, 0xbe,
  0x69, 0x9c, 0x3c, 0x3e, 0xf7, 0xae, 0x03, 0x3e, 0x4e, 0x8a, 0x8b, 0x3d,
  0x62, 0xb1, 0x50, 0xbe, 0xac, 0x62, 0xb6, 0xbd, 0x72, 0x60, 0x82, 0x3d,
  0xc0, 0xa3, 0x44, 0xbd, 0x53, 0xe9, 0x57, 0xbe, 0x25, 0x0a, 0x02, 0x3e,
  0xcc, 0x57, 0x05, 0xbd, 0x04, 0x20, 0x3b, 0x3d, 0xfc, 0x8e, 0x25, 0x3d,
  0x86, 0x02, 0xa4, 0xbd, 0xa1, 0xc4, 0x52, 0xbe, 0x84, 0x8d, 0x57, 0x3d,
  0xca, 0xb2, 0x3b, 0xbe, 0xc0, 0x6c, 0x77, 0xbc, 0x81, 0x2e, 0x29, 0x3e,
  0x7e, 0x79, 0xf2, 0x3d, 0xf5, 0xe2, 0x36, 0xbe, 0x8f, 0xa8, 0x23, 0x3e,
  0xb0, 0x40, 0xee, 0xbd, 0xc8, 0x4c, 0xeb, 0x3c, 0x1f, 0x31, 0xe6, 0xbd,
  0x24, 0x42, 0x50, 0x3d, 0x86, 0x3b, 0xb9, 0x3d, 0x36, 0xa6, 0x04, 0xbe,
  0x1a, 0x63, 0xc5, 0x3d, 0x96, 0x1a, 0x1f, 0xbe, 0x15, 0xeb, 0x04, 0x3e,
  0xfa, 0x81, 0x99, 0xbd, 0x36, 0xf3, 0x91, 0x3d, 0xc0, 0xbe, 0x0c, 0xbe,
  0xca, 0x07, 0x3e, 0xbe, 0x58, 0x09, 0x1e, 0xbe, 0xa3, 0x8d, 0x43, 0x3e,
  0xf6, 0x74, 0x3d, 0xbe, 0x20, 0xf8, 0x05, 0x3d, 0xf4, 0x36, 0x11, 0xbd,
  0xe0, 0x94, 0xfa, 0xbd, 0x62, 0xf3, 0x1f, 0xbe, 0x26, 0xc3, 0xef, 0x3d,
  0xbe, 0x61, 0xf7, 0x3d, 0x66, 0x2a, 0x29, 0xbe, 0x9d, 0xfb, 0x3e, 0x3e,
  0x66, 0xbf, 0x9e, 0x3d, 0x80, 0xf9, 0x7b, 0xbd, 0x27, 0x09, 0xc8, 0xbd,
  0x2a, 0x0a, 0xd0, 0x3d, 0xc2, 0xeb, 0x83, 0x3d, 0xf4, 0x6f, 0x10, 0xbe,
  0x38, 0x96, 0x89, 0xbc, 0xd8, 0x9b, 0x81, 0xbd, 0x38, 0xdf, 0xf4, 0xbd,
  0x36, 0x02, 0x10, 0xbe, 0xd8, 0xec, 0x69, 0xbd, 0x2e, 0x2b, 0xcd, 0x3d,
  0x57, 0x3e, 0x28, 0x3e, 0xb8, 0x7c, 0xfb, 0x3c, 0x89, 0x3d, 0x2a, 0x3e,
  0xcc, 0xe4, 0x24, 0xbe, 0xbb, 0xdc, 0x82, 0x3d, 0x93, 0xe8, 0x0d, 0x3e,
  0xe7, 0x84, 0x06, 0xbe, 0x48, 0x69, 0x25, 0xbe, 0x1d, 0x5c, 0xed, 0xbc,
  0x47, 0x8f, 0x42, 0xbe, 0xb7, 0x01, 0x4a, 0xbd, 0x19, 0x0e, 0x0e, 0x3e,
  0xa1, 0xbc, 0x2b, 0xbe, 0x97, 0x31, 0x94, 0x3d, 0x53, 0x0c, 0x20, 0x3d,
  0x61, 0xe6, 0x32, 0xbc, 0x03, 0xae, 0xce, 0x3d, 0xfb, 0x6b, 0x18, 0xbc,
  0x9c, 0xcf, 0x6a, 0xbe, 0xf2, 0x2b, 0xae, 0x3d, 0x6d, 0x6f, 0x36, 0x3e,
  0x4f, 0xa1, 0x91, 0x3d, 0x13, 0xc6, 0x5d, 0xbe, 0x79, 0x3e, 0x1b, 0xbe,
  0xbc, 0x43, 0x4d, 0xbd, 0x37, 0x68, 0x0f, 0xbe, 0x0c, 0xb1, 0x89, 0x3d,
  0x59, 0xc8, 0xee, 0xbd, 0x96, 0x53, 0xdb, 0x3c, 0xa9, 0x24, 0x37, 0x3e,
  0x40, 0x97, 0xd5, 0xbd, 0x1e, 0x0c, 0x39, 0x3e, 0x1f, 0xff, 0xdd, 0xbd,
  0x30, 0xe0, 0x51, 0xbe, 0xf7, 0xfe, 0x4c, 0xbe, 0xfc, 0x71, 0x04, 0xbe,
  0xee, 0xc2, 0x37, 0x3e, 0xc6, 0x3c, 0x86, 0xbd, 0x17, 0x24, 0xc1, 0x3d,
  0xa5, 0x85, 0x3b, 0xbe, 0xd1, 0xc7, 0xe4, 0xbd, 0xef, 0x79, 0x6a, 0xbe,
  0x12, 0x89, 0x50, 0xbd, 0x97, 0x4a, 0x1b, 0xbe, 0x50, 0xe0, 0xf9, 0x3d,
  0xf7, 0xa9, 0x29, 0xbe, 0x74, 0x7c, 0xbb, 0xbd, 0x84, 0x57, 0x0c, 0x3e,
  0xde, 0x50, 0xf0, 0x3b, 0x15, 0xae, 0x56, 0x3d, 0x8d, 0x5f, 0x51, 0xbe,
  0x31, 0x70, 0x4c, 0x3e, 0xed, 0xdc, 0x3b, 0x3e, 0x61, 0xeb, 0x23, 0x3e,
  0x6e, 0x34, 0xa9, 0xbd, 0xba, 0x7f, 0xab, 0x3d, 0x0f, 0xf9, 0xba, 0xbd,
  0xe8, 0x6d, 0x0d, 0x3e, 0xa2, 0xc8, 0xf8, 0x3b, 0x91, 0x91, 0x13, 0xbe,
  0xe9, 0x06, 0x2c, 0xbe, 0x72, 0x0c, 0x8b, 0x3d, 0x75, 0xcd, 0x86, 0x3d,
  0x76, 0x04, 0xc2, 0x3c, 0xfc, 0x3d, 0xaa, 0x3d, 0x79, 0x7b, 0xe3, 0x3d,
  0x27, 0x7e, 0xf5, 0xbd, 0xa7, 0xb9, 0xa4, 0xbd, 0x9b, 0x45, 0x53, 0xbe,
  0xcf, 0x00, 0x09, 0xbe, 0x26, 0x13, 0x1a, 0x3e, 0x67, 0x6c, 0x81, 0x3d,
  0xaf, 0x2d, 0xcf, 0xbd, 0x95, 0xec, 0x96, 0xbd, 0x8e, 0x02, 0x44, 0x3d,
  0xff, 0x5b, 0xc5, 0xbd, 0xe9, 0x9f, 0x91, 0x3d, 0x07, 0x2b, 0x5f, 0xbe,
  0x05, 0xc2, 0x07, 0xbe, 0x92, 0x28, 0x24, 0x3e, 0x9a, 0xa3, 0x26, 0x3e,
  0x78, 0x14, 0x70, 0xbd, 0x3d, 0xf9, 0xa8, 0x3c, 0x27, 0x8f, 0x8b, 0x3d,
  0x59, 0x90, 0x2e, 0x3c, 0x2f, 0xa1, 0x1e, 0x3e, 0x49, 0xd2, 0xb2, 0xbd,
  0x87, 0x03, 0x07, 0x3e, 0x85, 0x8b, 0xbb, 0xbc, 0xe6, 0x7c, 0x0b, 0xbe,
  0x6a, 0xb5, 0xc3, 0xbd, 0x91, 0x41, 0x18, 0x3e, 0x29, 0x59, 0xe2, 0x3d,
  0xab, 0xa4, 0x0d, 0xbe, 0xad, 0xa5, 0x34, 0x3d, 0xd9, 0x5c, 0x98, 0x3b,
  0x0a, 0x73, 0x95, 0x3d, 0xfe, 0x6e, 0x32, 0x3d, 0x1f, 0x8d, 0xf8, 0x3d,
  0xb6, 0x08, 0x04, 0x3e, 0x31, 0x05, 0x10, 0x3e, 0x9b, 0x2e, 0x33, 0x3e,
  0xe4, 0x6c, 0xbe, 0xbc, 0xee, 0x80, 0x58, 0x3d, 0x2d, 0x2f, 0x9f, 0x3d,
  0x9f, 0x75, 0x3b, 0x3d, 0x6f, 0x24, 0xb5, 0x3a, 0xbb, 0xfb, 0x98, 0xbc,
  0x6a, 0x27, 0x99, 0xbd, 0x0c, 0x16, 0x32, 0xbd, 0x65, 0x29, 0xdd, 0x3d,
  0x38, 0x60, 0xba, 0xbd, 0x39, 0x78, 0x33, 0xbe, 0xbf, 0xf0, 0xae, 0xbc,
  0x78, 0x02, 0x43, 0x3e, 0x9c, 0x82, 0xb2, 0xbd, 0xf0, 0x5f, 0x2b, 0x3a,
  0x09, 0x68, 0x06, 0x3d, 0x3f, 0xe7, 0x4f, 0xbe, 0xe7, 0xa6, 0x04, 0xbe,
  0xcf, 0x49, 0x07, 0x3d, 0xa3, 0x16, 0x33, 0x3d, 0xdf, 0xb1, 0x21, 0xbd,
  0x43, 0xc9, 0xf2, 0xbd, 0x61, 0x4c, 0xc8, 0x3e, 0x99, 0xae, 0x6e, 0x3e,
  0xa6, 0xe2, 0x83, 0xbe, 0x4c, 0x30, 0x9e, 0x3e, 0x42, 0x78, 0x83, 0x3e,
  0x7f, 0x5a, 0xa3, 0xbe, 0xe4, 0xcf, 0x2b, 0x3e, 0x3a, 0x31, 0x2c, 0xbd,
  0xe8, 0x9f, 0x05, 0xbe, 0xe7, 0x9d, 0x0e, 0x3e, 0x7a, 0xcd, 0x15, 0x3e,
  0x84, 0x24, 0x61, 0xbe, 0x09, 0x88, 0x39, 0x3d, 0xa0, 0x9c, 0x75, 0x3e,
  0x78, 0x25, 0x78, 0xbd, 0x70, 0xa0, 0x03, 0x3e, 0xc1, 0x91, 0x8a, 0x3e,
  0x88, 0x9f, 0x81, 0xbe, 0x3f, 0xa8, 0x99, 0x3e, 0x05, 0x5f, 0xc9, 0x3c,
  0x05, 0x08, 0x21, 0xbe, 0xae, 0xfa, 0xe4, 0x3c, 0x72, 0xc0, 0xc5, 0xbd,
  0x57, 0x0f, 0x31, 0xbe, 0x25, 0x84, 0x99, 0x3d, 0x11, 0x0b, 0x16, 0x3e,
  0x0a, 0x16, 0x5f, 0xbe, 0x5a, 0x96, 0x8f, 0x3e, 0xe3, 0x03, 0x3b, 0x3e,
  0x85, 0x3c, 0x65, 0xbd, 0xc5, 0x7f, 0x95, 0x3e, 0xfe, 0x94, 0x5b, 0x3e,
  0xf8, 0xab, 0x0a, 0xbe, 0xe6, 0xff, 0xef, 0x3d, 0x27, 0xcb, 0x9e, 0x3d,
  0x4d, 0x78, 0x94, 0xbe, 0x0b, 0xda, 0x43, 0x3e, 0xd3, 0x34, 0x5c, 0xbd,
  0x34, 0x97, 0x68, 0x3d, 0x73, 0x4d, 0x6b, 0x3e, 0x2f, 0x0e, 0x2c, 0x3e,
  0xb4, 0xf5, 0x4d, 0xbe, 0x1a, 0x6e, 0x15, 0x3e, 0x6d, 0xb3, 0x00, 0xbd,
  0x99, 0xd4, 0xcd, 0xbb, 0x78, 0x06, 0xe1, 0x3e, 0xeb, 0x08, 0x1f, 0x3b,
  0xf1, 0x13, 0x67, 0xbe, 0xd6, 0x5f, 0xa5, 0x3d, 0xc6, 0x72, 0xda, 0x3d,
  0x85, 0x8e, 0xa4, 0xbe, 0xd8, 0x9d, 0x04, 0xbd, 0xa5, 0xd1, 0x2f, 0x3e,
  0xbb, 0x81, 0x0c, 0xbd, 0x1a, 0x4d, 0xb1, 0x3e, 0xfa, 0xa2, 0x9b, 0x3d,
  0xc1, 0x3b, 0x9a, 0xbe, 0xf0, 0x0c, 0x3d, 0x3e, 0x95, 0xaf, 0xb6, 0x3e,
  0x40, 0xb3, 0x05, 0xbe, 0x4a, 0x73, 0x5e, 0x3e, 0x5c, 0xae, 0x2b, 0x3e,
  0xd3, 0xcf, 0xe1, 0x3d, 0x40, 0x50, 0xa1, 0x3e, 0xaf, 0xf2, 0x1a, 0xbc,
  0x60, 0xd9, 0x49, 0xbe, 0xb4, 0x76, 0x2f, 0xbd, 0xcf, 0x72, 0x8c, 0x3e,
  0xdb, 0xc3, 0x6a, 0xbd, 0x92, 0x74, 0xd5, 0x3e, 0xff, 0xbf, 0x57, 0x3e,
  0x2b, 0x00, 0x9a, 0x3b, 0xb2, 0x96, 0x1e, 0xbc, 0x5a, 0x51, 0x98, 0x3e,
  0xd7, 0x27, 0x2b, 0xbe, 0x00, 0x42, 0x4e, 0x3e, 0x66, 0xcb, 0xc6, 0xbd,
  0xc2, 0xb5, 0x89, 0xbd, 0x72, 0x3d, 0x8c, 0xbd, 0xa2, 0x5b, 0xec, 0x3d,
  0x76, 0xda, 0x02, 0xbd, 0xc1, 0x63, 0x3f, 0x3e, 0xb1, 0x42, 0xc9, 0x3d,
  0xe5, 0x7b, 0x8e, 0xbe, 0xe3, 0x9f, 0xa0, 0x3d, 0x1e, 0x9b, 0x8f, 0x3e,
  0x18, 0xe2, 0x77, 0xbe, 0xf0, 0xa3, 0x9a, 0x3e, 0x34, 0x53, 0x67, 0xbd,
  0x1a, 0x3e, 0x93, 0xbd, 0xbe, 0x4d, 0xb2, 0x3e, 0x69, 0x1a, 0xf8, 0x3c,
  0xbe, 0xed, 0x0f, 0xbd, 0xd6, 0xe8, 0x96, 0x3e, 0xa1, 0x45, 0x84, 0xbb,
  0xae, 0x12, 0x84, 0xbe, 0xe7, 0x2b, 0x74, 0x3d, 0x1d, 0x65, 0x83, 0x3e,
  0xce, 0x99, 0x7c, 0xbe, 0x24, 0x06, 0x37, 0x3e, 0x42, 0xab, 0x78, 0x3e,
  0x97, 0x1d, 0x03, 0x3d, 0x75, 0xd7, 0x9b, 0x3b, 0x16, 0x50, 0x2c, 0x3e,
  0xde, 0xaa, 0xd2, 0x3d, 0x39, 0xb1, 0xa7, 0x3e, 0x0b, 0xdb, 0x8e, 0x3d,
  0x22, 0xb5, 0x7b, 0xbc, 0xbd, 0x68, 0x53, 0x3d, 0x1c, 0xad, 0x82, 0x3e,
  0x63, 0xb7, 0xb5, 0xbd, 0x7c, 0x1b, 0x69, 0xbd, 0x30, 0x4f, 0x28, 0x3e,
  0x87, 0x96, 0x81, 0xbe, 0xc8, 0x40, 0x65, 0x3e, 0xde, 0x38, 0x95, 0xbd,
  0x86, 0x60, 0x8c, 0xbd, 0x78, 0x39, 0xa5, 0x3e, 0x95, 0xf8, 0xbc, 0xbc,
  0x56, 0xa2, 0x34, 0xbe, 0x16, 0xa3, 0x30, 0xbe, 0x3b, 0xb2, 0x44, 0xbe,
  0x9c, 0x60, 0xad, 0xbd, 0x27, 0x8d, 0x41, 0xbe, 0x5a, 0x7a, 0xb3, 0x3d,
  0x0f, 0xa9, 0x50, 0x3e, 0xc6, 0xf0, 0xef, 0x3d, 0xda, 0xce, 0xb9, 0x3d,
  0x68, 0x4a, 0x1a, 0xbe, 0x70, 0xa6, 0xfa, 0xbd, 0x40, 0x03, 0x60, 0xbc,
  0xb1, 0x3e, 0x25, 0x3e, 0x68, 0x06, 0x2c, 0xbe, 0xb9, 0x37, 0x33, 0x3e,
  0xc5, 0x4c, 0x1b, 0x3e, 0xe0, 0x32, 0xa2, 0x3c, 0xdf, 0xf7, 0xda, 0xbd,
  0x7e, 0x21, 0xb4, 0x3d, 0x20, 0xd1, 0x63, 0x3c, 0xf0, 0x1b, 0xe6, 0xbc,
  0x78, 0xa5, 0xb0, 0x3c, 0x74, 0xcf, 0x0e, 0xbd, 0x46, 0x19, 0xbf, 0x3d,
  0xbc, 0xc6, 0x20, 0x3d, 0x64, 0xc9, 0x4f, 0xbd, 0x5c, 0xaa, 0x1d, 0xbe,
  0x20, 0x2b, 0xcc, 0xbb, 0xea, 0xe3, 0x11, 0xbe, 0xd3, 0x81, 0x2a, 0x3e,
  0x01, 0x71, 0xbf, 0xbd, 0xb3, 0x6f, 0x51, 0x3e, 0x8e, 0x85, 0x55, 0xbe,
  0xc3, 0x4f, 0x1a, 0xbe, 0x00, 0x0e, 0x10, 0xbe, 0xa3, 0x43, 0x2d, 0xbe,
  0xbc, 0x40, 0x7e, 0x3d, 0xb6, 0x1c, 0x8e, 0x3d, 0x6b, 0xd0, 0x26, 0x3e,
  0x3e, 0x97, 0xe4, 0x3d, 0x8a, 0xf5, 0xb7, 0x3d, 0x9c, 0x47, 0x71, 0x3d,
  0x00, 0x00, 0x3b, 0xbc, 0x84, 0x08, 0x0e, 0xbd, 0x4f, 0xed, 0xf0, 0xbd,
  0xc2, 0x75, 0xda, 0x3d, 0xa3, 0x2f, 0x57, 0x3e, 0x72, 0x3c, 0xe3, 0xbd,
  0xec, 0xe5, 0x4a, 0x3d, 0x13, 0x91, 0x03, 0x3e, 0xb0, 0x65, 0x1e, 0xbd,
  0x0b, 0xe3, 0x1f, 0x3e, 0x1b, 0x00, 0x18, 0x3e, 0x3a, 0x2f, 0xf7, 0x3d,
  0x92, 0xdb, 0xc0, 0x3d, 0x80, 0xa1, 0x38, 0xbc, 0xcd, 0x3d, 0x1b, 0x3e,
  0xe3, 0x22, 0x00, 0xbe, 0x0b, 0x95, 0x39, 0x3e, 0x10, 0xdc, 0x61, 0xbd,
  0x5d, 0x28, 0x31, 0x3e, 0x7a, 0x62, 0xcb, 0x3d, 0xf8, 0xa9, 0xdc, 0xbc,
  0xae, 0xf3, 0x01, 0xbe, 0x64, 0x4c, 0x36, 0x3d, 0x18, 0xb2, 0xb7, 0xbc,
  0xbc, 0x2c, 0x60, 0xbd, 0x60, 0xe8, 0x66, 0xbc, 0x31, 0x6c, 0x3c, 0xbe,
  0x56, 0x73, 0x04, 0xbe, 0x2c, 0xc5, 0x7e, 0xbd, 0xde, 0xbb, 0x48, 0xbe,
  0xc3, 0x0a, 0x4c, 0x3e, 0x4a, 0xb4, 0xa1, 0xbd, 0x70, 0x49, 0xdf, 0xbd,
  0x73, 0x70, 0x0a, 0xbe, 0xf0, 0xf4, 0x72, 0xbc, 0x8f, 0x81, 0xf6, 0xbd,
  0x1b, 0x13, 0x56, 0xbe, 0xb4, 0xca, 0x29, 0x3d, 0xc9, 0x39, 0x08, 0x3e,
  0x2e, 0x61, 0x01, 0xbe, 0x00, 0x99, 0x96, 0x3c, 0x60, 0x87, 0xe0, 0x3b,
  0x80, 0x30, 0x18, 0xbe, 0x00, 0x9e, 0xb2, 0x3c, 0xe2, 0x3f, 0x89, 0x3d,
  0x45, 0xf9, 0x03, 0x3e, 0xc2, 0x7d, 0xa5, 0x3d, 0x27, 0x7d, 0x17, 0x3e,
  0xde, 0x5f, 0x16, 0xbe, 0x2d, 0x36, 0x5b, 0x3e, 0x63, 0x67, 0x4a, 0xbe,
  0x4e, 0xdb, 0x18, 0xbe, 0x52, 0x13, 0xf7, 0xbd, 0x62, 0xa0, 0xd8, 0x3d,
  0xd0, 0x47, 0x99, 0xbd, 0x16, 0xe3, 0xcf, 0x3d, 0x00, 0xfb, 0x53, 0x3c,
  0x9a, 0xa3, 0x99, 0x3d, 0x53, 0x6d, 0x50, 0x3e, 0x40, 0xc2, 0x12, 0x3c,
  0x6d, 0xdd, 0x50, 0x3e, 0xe0, 0x43, 0x77, 0xbc, 0xc1, 0x3f, 0x51, 0xbe,
  0xc0, 0x18, 0xc4, 0x3b, 0x3c, 0xe4, 0x37, 0xbe, 0x80, 0xd6, 0x60, 0x3b,
  0x18, 0x09, 0xf8, 0xbd, 0xee, 0xb0, 0x93, 0xbd, 0x2f, 0xdf, 0x42, 0x3e,
  0x73, 0x01, 0xd6, 0xbd, 0xe0, 0x32, 0x4a, 0xbc, 0xea, 0x1d, 0x9a, 0x3d,
  0x2c, 0x28, 0x64, 0x3d, 0x96, 0xf6, 0x28, 0xbe, 0x7e, 0x89, 0xa4, 0x3d,
  0x24, 0xeb, 0x32, 0x3d, 0x00, 0x40, 0x14, 0xbe, 0xe4, 0x52, 0xdf, 0xbd,
  0x92, 0x89, 0x1d, 0xbe, 0x43, 0x66, 0x18, 0xbe, 0xa2, 0xc4, 0x08, 0xbe,
  0x40, 0xe4, 0x86, 0xbd, 0x36, 0x2d, 0xfb, 0x3d, 0x2b, 0x85, 0x0b, 0x3e,
  0xa0, 0xa6, 0xd0, 0x3c, 0xda, 0x7b, 0x06, 0xbe, 0x4e, 0xf1, 0x27, 0xbe,
  0x72, 0x76, 0x86, 0xbd, 0x5c, 0xb1, 0x66, 0x3d, 0x82, 0xc9, 0x5a, 0xbe,
  0xc2, 0x8a, 0x97, 0x3d, 0xa2, 0x71, 0xcf, 0x3d, 0xc2, 0xef, 0xf2, 0xbd,
  0x98, 0x58, 0x33, 0xbe, 0xf9, 0x2d, 0x0a, 0x3e, 0xdd, 0x00, 0x18, 0x3e,
  0xc0, 0x26, 0x47, 0xbb, 0xb6, 0xc3, 0xd6, 0x3d, 0xed, 0x06, 0x57, 0x3e,
  0x84, 0x4b, 0x52, 0x3d, 0x06, 0x77, 0x00, 0xbe, 0xac, 0x64, 0x6e, 0x3d,
  0x88, 0x4d, 0x1a, 0xbe, 0xf7, 0x51, 0x21, 0x3e, 0xb9, 0x28, 0x29, 0x3e,
  0xd0, 0x9b, 0x82, 0xbd, 0xea, 0x35, 0xf8, 0x3d, 0xa9, 0xcf, 0x55, 0xbe,
  0xe2, 0x3f, 0x98, 0xbd, 0xfd, 0x22, 0x23, 0x3e, 0x4a, 0xa6, 0xcd, 0x3d,
  0x68, 0x51, 0x1f, 0xbd, 0xbe, 0xc4, 0xd1, 0x3d, 0xe2, 0xb2, 0xdd, 0x3d,
  0x22, 0x3b, 0x0b, 0xbe, 0xf8, 0x12, 0x29, 0xbd, 0x69, 0x56, 0x55, 0x3e,
  0x18, 0x5c, 0xd0, 0xbd, 0xae, 0x4e, 0xb0, 0x3d, 0x40, 0x58, 0xca, 0x3c,
  0x6a, 0x02, 0x29, 0xbe, 0xd3, 0x31, 0x41, 0x3e, 0xf6, 0xaf, 0xf7, 0x3d,
  0xdb, 0xcc, 0x04, 0x3e, 0xef, 0x55, 0x05, 0xbe, 0x9c, 0x76, 0x38, 0x3d,
  0xe0, 0x0f, 0x0e, 0x3d, 0xf5, 0x78, 0x46, 0xbe, 0x59, 0xb8, 0x3a, 0xbe,
  0x6f, 0xf0, 0x01, 0x3e, 0x60, 0x6b, 0xd0, 0xbd, 0x7c, 0x91, 0x5c, 0xbd,
  0xe7, 0xe1, 0xff, 0xbd, 0x64, 0x40, 0xe1, 0xbd, 0x6a, 0x2a, 0xc3, 0xbd,
  0xd2, 0xb3, 0x47, 0xbe, 0x0f, 0x30, 0x33, 0x3e, 0x4a, 0x62, 0x81, 0x3d,
  0x72, 0xdf, 0xd0, 0x3d, 0xfc, 0x96, 0x15, 0xbe, 0x1e, 0xec, 0x44, 0xbe,
  0x61, 0x3e, 0x42, 0xbe, 0xd4, 0xe6, 0x2c, 0xbd, 0x5d, 0xfb, 0x1b, 0x3e,
  0x93, 0x1a, 0x07, 0x3e, 0x10, 0x1e, 0x4d, 0xbd, 0x36, 0x2d, 0x9e, 0x3d,
  0xfe, 0x00, 0x17, 0xbe, 0x1a, 0x62, 0x9c, 0x3d, 0x57, 0x9c, 0x1c, 0xbe,
  0x41, 0x37, 0x25, 0x3e, 0x32, 0x7c, 0xcb, 0x3d, 0x09, 0x21, 0x0d, 0x3e,
  0x23, 0x64, 0xd5, 0xbd, 0x0d, 0xc8, 0x2b, 0x3e, 0xb2, 0x61, 0xc8, 0x3d,
  0xfe, 0xbc, 0xd3, 0xbd, 0x01, 0x39, 0xec, 0xbd, 0x2f, 0x2d, 0x45, 0xbe,
  0x00, 0xd0, 0x96, 0xbc, 0x80, 0xab, 0x4c, 0x3b, 0x0d, 0xe5, 0x23, 0xbe,
  0xa1, 0x8e, 0x00, 0x3e, 0x44, 0x75, 0x66, 0x3d, 0xa3, 0xcc, 0x47, 0x3e,
  0x35, 0xf2, 0x53, 0x3e, 0x98, 0x19, 0x44, 0xbe, 0x67, 0x76, 0x3f, 0xbe,
  0xcc, 0x88, 0x4c, 0xbe, 0xd0, 0x07, 0x49, 0x3c, 0x82, 0x0a, 0x9b, 0xbd,
  0xdd, 0x98, 0x1b, 0x3e, 0x6e, 0x76, 0xcc, 0x3d, 0x80, 0xe1, 0x16, 0xbb,
  0x92, 0x24, 0x5b, 0xbe, 0xf2, 0x1f, 0xd2, 0xbd, 0x62, 0xf9, 0x38, 0xbe,
  0x22, 0xb1, 0x00, 0xbe, 0x00, 0x08, 0x64, 0xbd, 0xbe, 0x0a, 0xfd, 0xbd,
  0xea, 0xaf, 0xb8, 0x3d, 0x39, 0xa4, 0x1c, 0x3e, 0xf7, 0xdb, 0x24, 0x3e,
  0x8b, 0x3a, 0x51, 0xbe, 0x03, 0xae, 0x48, 0xbe, 0xf6, 0x2d, 0x9e, 0x3d,
  0xa7, 0xfa, 0xee, 0xbd, 0x79, 0x8b, 0x09, 0x3e, 0x88, 0x52, 0x74, 0xbd,
  0xa5, 0xde, 0x54, 0x3e, 0xf6, 0x69, 0xb9, 0x3d, 0xda, 0x5e, 0x8c, 0xbd,
  0x5c, 0x58, 0x66, 0xbd, 0x8d, 0x99, 0x2f, 0x3e, 0x0a, 0xb2, 0xe2, 0xbd,
  0xe0, 0xe6, 0xff, 0x3c, 0x5a, 0x98, 0x84, 0x3d, 0x95, 0xde, 0x24, 0xbe,
  0xbd, 0x03, 0x55, 0x3e, 0x39, 0x1c, 0x16, 0x3e, 0x00, 0x2e, 0x8d, 0xbb,
  0x88, 0x6c, 0x06, 0xbe, 0x00, 0x1e, 0xcc, 0xbd, 0x32, 0x09, 0x3d, 0xbe,
  0x20, 0x1c, 0xf2, 0x3b, 0x20, 0x43, 0x0b, 0x3c, 0x9d, 0x33, 0x58, 0x3e,
  0x3a, 0xa7, 0x19, 0xbe, 0x10, 0x68, 0x35, 0xbd, 0x8d, 0x93, 0x2c, 0x3e,
  0x6e, 0x5f, 0xd3, 0xbd, 0xa8, 0x0b, 0x02, 0xbd, 0xbe, 0x5e, 0xa3, 0xbd,
  0x18, 0x10, 0x05, 0x3d, 0x14, 0x89, 0x29, 0x3d, 0x76, 0xae, 0x18, 0xbe,
  0x80, 0x7c, 0x8b, 0xbb, 0x4c, 0xe6, 0x02, 0xbe, 0x29, 0x97, 0x4a, 0xbe,
  0x3a, 0x75, 0xdb, 0x3d, 0x10, 0xf5, 0x79, 0xbc, 0xbd, 0xce, 0x18, 0x3e,
  0x3c, 0x5e, 0x1b, 0x3d, 0xeb, 0x4f, 0xcb, 0xbd, 0xa4, 0x5f, 0x21, 0x3d,
  0xbb, 0x85, 0x42, 0xbe, 0xfa, 0xa4, 0xdf, 0x3d, 0xf0, 0x46, 0x42, 0xbd,
  0x8f, 0x93, 0xfa, 0xbd, 0xfa, 0x06, 0x97, 0x3d, 0x3e, 0x5f, 0xeb, 0xbd,
  0x4c, 0xd2, 0x52, 0x3d, 0x5f, 0xa4, 0x22, 0xbe, 0xa4, 0x3f, 0x16, 0xbd,
  0xbf, 0x83, 0x44, 0xbe, 0x3a, 0xc2, 0x0d, 0xbe, 0x0f, 0xc6, 0x55, 0xbe,
  0x90, 0x2e, 0x80, 0x3c, 0x30, 0x4e, 0xc0, 0x3c, 0xc8, 0x6d, 0x2e, 0xbd,
  0x25, 0x39, 0x49, 0x3e, 0xc2, 0xb4, 0x06, 0xbe, 0xa3, 0xa3, 0x23, 0x3e,
  0x5f, 0x9a, 0x1e, 0xbe, 0x58, 0x2e, 0xd7, 0xbc, 0x43, 0x9b, 0x46, 0x3e,
  0x7a, 0xb6, 0xa2, 0x3d, 0x9e, 0xb1, 0xe6, 0xbd, 0x5f, 0xa3, 0x59, 0xbe,
  0x68, 0x59, 0x96, 0x3c, 0x52, 0x96, 0xa2, 0x3d, 0x2f, 0x77, 0xf2, 0xbd,
  0x5c, 0xc4, 0xcb, 0xbd, 0xc2, 0xf9, 0xce, 0x3d, 0x76, 0x47, 0xe4, 0xbd,
  0xf5, 0xff, 0x4d, 0x3e, 0x9b, 0xcd, 0xc3, 0xbd, 0x30, 0x0d, 0x17, 0xbd,
  0xdf, 0xbe, 0x01, 0x3e, 0x3b, 0x61, 0x1a, 0x3e, 0x83, 0x6a, 0x2f, 0xbe,
  0x04, 0xa7, 0x3c, 0x3d, 0xbb, 0x53, 0x36, 0x3e, 0x08, 0xfe, 0x4f, 0xbd,
  0x20, 0xa1, 0xea, 0xbb, 0x70, 0x35, 0x50, 0xbe, 0x82, 0x0e, 0xa5, 0x3d,
  0xd4, 0xb6, 0x75, 0x3d, 0x9a, 0xf2, 0xd7, 0x3d, 0xdc, 0x47, 0xaf, 0xbd,
  0x40, 0xb4, 0x01, 0xbe, 0x00, 0x8c, 0x03, 0xba, 0x70, 0xf9, 0x44, 0xbe,
  0xfc, 0xe6, 0x35, 0x3d, 0xef, 0x3a, 0x3d, 0x3e, 0x9a, 0xf7, 0x07, 0xbe,
  0x45, 0x3f, 0x13, 0x3e, 0xed, 0x7e, 0x4b, 0x3e, 0x49, 0x3a, 0x42, 0x3e,
  0x67, 0xf9, 0x4f, 0x3e, 0x22, 0x56, 0x85, 0x3d, 0x58, 0xd4, 0xf4, 0xbc,
  0x49, 0x31, 0x49, 0x3e, 0xc8, 0xd6, 0xb9, 0xbc, 0x57, 0x05, 0x4a, 0x3e,
  0xc4, 0xf7, 0xaa, 0xbd, 0xf4, 0x2a, 0xf7, 0xbd, 0x40, 0x5f, 0x68, 0xbc,
  0x16, 0x0e, 0xc4, 0x3d, 0x21, 0x95, 0x54, 0x3e, 0xe1, 0x20, 0x4f, 0x3e,
  0x56, 0x9b, 0x09, 0xbe, 0x20, 0x7e, 0x8a, 0xbb, 0x0c, 0x66, 0x1a, 0x3d,
  0x00, 0xc8, 0x1d, 0xba, 0x8c, 0xd2, 0x3a, 0x3d, 0x29, 0x72, 0xf1, 0xbd,
  0x10, 0x64, 0x0c, 0xbc, 0xd6, 0x5c, 0xfa, 0x3d, 0x14, 0x0b, 0x1e, 0xbd,
  0x38, 0x07, 0xbe, 0x3c, 0xbe, 0x86, 0x57, 0xbe, 0xec, 0x42, 0xb3, 0xbd,
  0xbc, 0x5a, 0x31, 0x3d, 0xbf, 0xe7, 0x23, 0x3e, 0xa4, 0xdc, 0x6a, 0x3d,
  0xf8, 0x52, 0xac, 0x3c, 0xc4, 0x76, 0x6a, 0x3d, 0x9b, 0xda, 0x42, 0x3e,
  0xf6, 0xde, 0xe8, 0x3d, 0x3a, 0x28, 0x57, 0xbe, 0x13, 0x47, 0x59, 0xbe,
  0x99, 0xf2, 0xef, 0xbd, 0xf4, 0xce, 0x49, 0x3d, 0x32, 0xf2, 0x88, 0x3d,
  0x4a, 0x03, 0x06, 0xbe, 0x43, 0x63, 0x55, 0x3e, 0x63, 0x84, 0x47, 0x3e,
  0xb2, 0xa8, 0x3c, 0xbe, 0x74, 0x10, 0xc4, 0x3c, 0x8e, 0xe5, 0x61, 0xbc,
  0x61, 0x3e, 0xa6, 0x3e, 0xd8, 0x38, 0x86, 0xbd, 0x10, 0x4e, 0x42, 0x3e,
  0xd7, 0xaf, 0x97, 0xbd, 0x5c, 0xcd, 0xe0, 0xbd, 0x4d, 0x34, 0xe6, 0x3d,
  0x23, 0xab, 0x67, 0x3d, 0x31, 0x71, 0x03, 0x3e, 0xb0, 0x71, 0xcc, 0x3c,
  0x3e, 0x81, 0x2a, 0x3e, 0xc3, 0x50, 0x27, 0x3d, 0x8e, 0x52, 0x40, 0xbe,
  0xd0, 0x22, 0x5e, 0x3d, 0xdd, 0xf7, 0x98, 0xbe, 0xc1, 0x26, 0x58, 0xbd,
  0xb1, 0xdd, 0x39, 0xba, 0x51, 0xd8, 0xf0, 0xba, 0xcd, 0x84, 0xfc, 0x3d,
  0x2f, 0x06, 0xa1, 0x3e, 0x1e, 0xdd, 0x1b, 0x3e, 0xbb, 0x5b, 0x71, 0x3e,
  0x13, 0x49, 0x5e, 0xb9, 0x64, 0x34, 0xfb, 0xbd, 0xf4, 0x8c, 0x8c, 0x3d,
  0x0d, 0x66, 0x47, 0x3e, 0xeb, 0xf4, 0x49, 0xbd, 0xb8, 0x74, 0x5e, 0xbe,
  0x94, 0x1b, 0x4a, 0xbd, 0x49, 0xa9, 0xf4, 0xbc, 0x8c, 0xc4, 0x7d, 0x3e,
  0xbc, 0xe0, 0xe4, 0x3c, 0xee, 0x89, 0x36, 0xbe, 0xc3, 0x01, 0x7b, 0x3e,
  0xc5, 0xa9, 0x8c, 0xbd, 0x27, 0x92, 0x88, 0xbd, 0xc9, 0xe8, 0x62, 0x3e,
  0x98, 0x83, 0x52, 0xbd, 0xed, 0x0a, 0xe8, 0xbd, 0x9d, 0x80, 0x2a, 0x3d,
  0x5b, 0x38, 0x25, 0x3e, 0xf2, 0x90, 0xa3, 0xbd, 0xae, 0x4d, 0xdc, 0x3d,
  0xd3, 0x49, 0x42, 0x3d, 0x06, 0x71, 0x33, 0xbe, 0x0e, 0xda, 0x15, 0x3e,
  0xa9, 0xaf, 0xa7, 0x3e, 0x18, 0xe3, 0x25, 0x3e, 0x11, 0x40, 0xd5, 0xbd,
  0x58, 0x19, 0xcd, 0xbb, 0x1e, 0xcf, 0x2b, 0xbd, 0x43, 0xdf, 0x09, 0x3e,
  0x89, 0xd6, 0x65, 0x3e, 0xbe, 0x43, 0xe0, 0xbd, 0xdc, 0xc0, 0x38, 0xbe,
  0x36, 0xbd, 0x99, 0x3e, 0xad, 0xf2, 0x2f, 0xbe, 0x0a, 0x90, 0xd7, 0xbd,
  0x26, 0xdd, 0x69, 0x3e, 0x9f, 0x88, 0x93, 0xbd, 0x63, 0xbb, 0x2d, 0xbe,
  0x06, 0x86, 0x95, 0x3e, 0xe2, 0x80, 0x86, 0xbd, 0x7d, 0x8c, 0xa5, 0xbd,
  0x8f, 0x8a, 0x5c, 0x3e, 0x33, 0x52, 0xaf, 0x3d, 0xc5, 0x75, 0x42, 0x3e,
  0xef, 0x8b, 0x8a, 0x3e, 0x4b, 0x4a, 0x20, 0xbe, 0x97, 0x43, 0x0b, 0x3e,
  0x8b, 0xf7, 0x86, 0x3e, 0xa8, 0x75, 0x0b, 0xbe, 0x80, 0x12, 0xc4, 0xbd,
  0xa9, 0x44, 0x82, 0x3e, 0x99, 0x9c, 0x79, 0xbe, 0x8c, 0xb7, 0xf6, 0xbd,
  0xc1, 0x4c, 0x5a, 0x3e, 0xd0, 0x1a, 0xdc, 0x3d, 0xfb, 0x6f, 0x16, 0x3e,
  0x6a, 0x2b, 0x04, 0x3e, 0x16, 0xf1, 0x98, 0x3d, 0x73, 0x75, 0xbf, 0x3d,
  0xf4, 0xad, 0xca, 0x3d, 0xb1, 0xfc, 0x05, 0xbd, 0x8d, 0xd4, 0x95, 0xbd,
  0x35, 0xb8, 0xac, 0x3e, 0xdc, 0x98, 0x03, 0x3e, 0xd6, 0x72, 0x0b, 0x3e,
  0x4b, 0x4f, 0x93, 0xbd, 0x2d, 0x01, 0xc3, 0x3d, 0x92, 0x07, 0xc5, 0xbd,
  0x90, 0x77, 0x3a, 0x3e, 0xe5, 0x07, 0x3d, 0xbe, 0x79, 0xa6, 0x33, 0x3d,
  0x2e, 0x77, 0x8d, 0xbd, 0x34, 0xe5, 0xc2, 0x3d, 0xe1, 0x1e, 0x31, 0xbd,
  0xd0, 0xde, 0x89, 0x3b, 0x65, 0xe6, 0x01, 0xbe, 0x69, 0x59, 0x65, 0x3e,
  0x53, 0xd7, 0x62, 0x3e, 0x33, 0xd5, 0x07, 0x3d, 0x3a, 0xaf, 0x61, 0xbd,
  0x94, 0x9e, 0x96, 0x3e, 0x76, 0x5f, 0x99, 0xbe, 0x24, 0xac, 0xd0, 0x3d,
  0x88, 0x38, 0xae, 0xbd, 0x37, 0x77, 0x46, 0xbe, 0x3d, 0xb7, 0x6d, 0xb8,
  0x9e, 0xed, 0x9a, 0x3e, 0x1c, 0x8f, 0x16, 0x3d, 0x95, 0x19, 0x5d, 0xbd,
  0x67, 0x31, 0x8b, 0x3e, 0xeb, 0x1e, 0xb4, 0x3b, 0xab, 0xee, 0x3d, 0x3d,
  0xb6, 0xbf, 0x23, 0x3d, 0x6e, 0xaa, 0x86, 0x3c, 0x4c, 0x64, 0xbc, 0x3c,
  0xef, 0xa3, 0x05, 0x3e, 0xea, 0xfe, 0xff, 0xff, 0x04, 0x00, 0x00, 0x00,
  0x28, 0x00, 0x00, 0x00, 0x8d, 0xc2, 0x06, 0x3d, 0x00, 0x00, 0x00, 0x00,
  0x0f, 0xd0, 0xdc, 0xbc, 0x00, 0x00, 0x00, 0x00, 0x8f, 0x6a, 0x97, 0xbc,
  0xe7, 0x07, 0x5c, 0x3d, 0x00, 0x00, 0x00, 0x00, 0x00, 0x00, 0x00, 0x00,
  0x00, 0x00, 0x00, 0x00, 0xbc, 0x59, 0x87, 0x3d, 0x1e, 0xff, 0xff, 0xff,
  0x04, 0x00, 0x00, 0x00, 0x28, 0x00, 0x00, 0x00, 0xa7, 0xb5, 0x73, 0xbd,
  0x2d, 0x03, 0xb1, 0x3d, 0xfe, 0x37, 0x58, 0x3d, 0xee, 0x8b, 0x1e, 0x3d,
  0x47, 0x81, 0x21, 0x3d, 0x65, 0x9b, 0x73, 0x3c, 0xff, 0xed, 0x88, 0xbc,
  0x46, 0x26, 0xe2, 0xbb, 0x53, 0x55, 0x91, 0x3d, 0x7c, 0x05, 0x3e, 0xbd,
  0x52, 0xff, 0xff, 0xff, 0x04, 0x00, 0x00, 0x00, 0x0c, 0x00, 0x00, 0x00,
  0x01, 0x60, 0x00, 0xbd, 0x4d, 0xa1, 0x96, 0x3c, 0xe4, 0x02, 0x0c, 0xbc,
  0x4c, 0xfa, 0xff, 0xff, 0x50, 0xfa, 0xff, 0xff, 0x0f, 0x00, 0x00, 0x00,
  0x4d, 0x4c, 0x49, 0x52, 0x20, 0x43, 0x6f, 0x6e, 0x76, 0x65, 0x72, 0x74,
  0x65, 0x64, 0x2e, 0x00, 0x01, 0x00, 0x00, 0x00, 0x14, 0x00, 0x00, 0x00,
  0x00, 0x00, 0x0e, 0x00, 0x18, 0x00, 0x14, 0x00, 0x10, 0x00, 0x0c, 0x00,
  0x08, 0x00, 0x04, 0x00, 0x0e, 0x00, 0x00, 0x00, 0x14, 0x00, 0x00, 0x00,
  0x1c, 0x00, 0x00, 0x00, 0x24, 0x01, 0x00, 0x00, 0x28, 0x01, 0x00, 0x00,
  0x2c, 0x01, 0x00, 0x00, 0x04, 0x00, 0x00, 0x00, 0x6d, 0x61, 0x69, 0x6e,
  0x00, 0x00, 0x00, 0x00, 0x04, 0x00, 0x00, 0x00, 0xcc, 0x00, 0x00, 0x00,
  0x84, 0x00, 0x00, 0x00, 0x50, 0x00, 0x00, 0x00, 0x14, 0x00, 0x00, 0x00,
  0x00, 0x00, 0x0e, 0x00, 0x1a, 0x00, 0x14, 0x00, 0x10, 0x00, 0x0c, 0x00,
  0x0b, 0x00, 0x04, 0x00, 0x0e, 0x00, 0x00, 0x00, 0x1c, 0x00, 0x00, 0x00,
  0x00, 0x00, 0x00, 0x09, 0x1c, 0x00, 0x00, 0x00, 0x20, 0x00, 0x00, 0x00,
  0x01, 0x00, 0x00, 0x00, 0x00, 0x00, 0x06, 0x00, 0x08, 0x00, 0x04, 0x00,
  0x06, 0x00, 0x00, 0x00, 0x00, 0x00, 0x80, 0x3f, 0x01, 0x00, 0x00, 0x00,
  0x0a, 0x00, 0x00, 0x00, 0x01, 0x00, 0x00, 0x00, 0x09, 0x00, 0x00, 0x00,
  0x9a, 0xff, 0xff, 0xff, 0x10, 0x00, 0x00, 0x00, 0x00, 0x00, 0x00, 0x08,
  0x0c, 0x00, 0x00, 0x00, 0x10, 0x00, 0x00, 0x00, 0x14, 0xfb, 0xff, 0xff,
  0x01, 0x00, 0x00, 0x00, 0x09, 0x00, 0x00, 0x00, 0x03, 0x00, 0x00, 0x00,
  0x08, 0x00, 0x00, 0x00, 0x06, 0x00, 0x00, 0x00, 0x01, 0x00, 0x00, 0x00,
  0xca, 0xff, 0xff, 0xff, 0x10, 0x00, 0x00, 0x00, 0x00, 0x00, 0x00, 0x08,
  0x10, 0x00, 0x00, 0x00, 0x14, 0x00, 0x00, 0x00, 0xba, 0xff, 0xff, 0xff,
  0x00, 0x00, 0x00, 0x01, 0x01, 0x00, 0x00, 0x00, 0x08, 0x00, 0x00, 0x00,
  0x03, 0x00, 0x00, 0x00, 0x07, 0x00, 0x00, 0x00, 0x05, 0x00, 0x00, 0x00,
  0x02, 0x00, 0x00, 0x00, 0x00, 0x00, 0x0e, 0x00, 0x16, 0x00, 0x00, 0x00,
  0x10, 0x00, 0x0c, 0x00, 0x0b, 0x00, 0x04, 0x00, 0x0e, 0x00, 0x00, 0x00,
  0x18, 0x00, 0x00, 0x00, 0x00, 0x00, 0x00, 0x08, 0x18, 0x00, 0x00, 0x00,
  0x1c, 0x00, 0x00, 0x00, 0x00, 0x00, 0x06, 0x00, 0x08, 0x00, 0x07, 0x00,
  0x06, 0x00, 0x00, 0x00, 0x00, 0x00, 0x00, 0x01, 0x01, 0x00, 0x00, 0x00,
  0x07, 0x00, 0x00, 0x00, 0x03, 0x00, 0x00, 0x00, 0x00, 0x00, 0x00, 0x00,
  0x04, 0x00, 0x00, 0x00, 0x03, 0x00, 0x00, 0x00, 0x01, 0x00, 0x00, 0x00,
  0x0a, 0x00, 0x00, 0x00, 0x01, 0x00, 0x00, 0x00, 0x00, 0x00, 0x00, 0x00,
  0x0b, 0x00, 0x00, 0x00, 0x18, 0x04, 0x00, 0x00, 0xac, 0x03, 0x00, 0x00,
  0x44, 0x03, 0x00, 0x00, 0xec, 0x02, 0x00, 0x00, 0xa0, 0x02, 0x00, 0x00,
  0x54, 0x02, 0x00, 0x00, 0x08, 0x02, 0x00, 0x00, 0x70, 0x01, 0x00, 0x00,
  0xd8, 0x00, 0x00, 0x00, 0x5c, 0x00, 0x00, 0x00, 0x04, 0x00, 0x00, 0x00,
  0x28, 0xfc, 0xff, 0xff, 0x14, 0x00, 0x00, 0x00, 0x1c, 0x00, 0x00, 0x00,
  0x1c, 0x00, 0x00, 0x00, 0x0b, 0x00, 0x00, 0x00, 0x34, 0x00, 0x00, 0x00,
  0x02, 0x00, 0x00, 0x00, 0xff, 0xff, 0xff, 0xff, 0x03, 0x00, 0x00, 0x00,
  0x14, 0xfc, 0xff, 0xff, 0x19, 0x00, 0x00, 0x00, 0x53, 0x74, 0x61, 0x74,
  0x65, 0x66, 0x75, 0x6c, 0x50, 0x61, 0x72, 0x74, 0x69, 0x74, 0x69, 0x6f,
  0x6e, 0x65, 0x64, 0x43, 0x61, 0x6c, 0x6c, 0x3a, 0x30, 0x00, 0x00, 0x00,
  0x02, 0x00, 0x00, 0x00, 0x01, 0x00, 0x00, 0x00, 0x03, 0x00, 0x00, 0x00,
  0x7c, 0xfc, 0xff, 0xff, 0x14, 0x00, 0x00, 0x00, 0x1c, 0x00, 0x00, 0x00,
  0x1c, 0x00, 0x00, 0x00, 0x0a, 0x00, 0x00, 0x00, 0x58, 0x00, 0x00, 0x00,
  0x02, 0x00, 0x00, 0x00, 0xff, 0xff, 0xff, 0xff, 0x03, 0x00, 0x00, 0x00,
  0x68, 0xfc, 0xff, 0xff, 0x3c, 0x00, 0x00, 0x00, 0x73, 0x65, 0x71, 0x75,
  0x65, 0x6e, 0x74, 0x69, 0x61, 0x6c, 0x5f, 0x32, 0x32, 0x2f, 0x64, 0x65,
  0x6e, 0x73, 0x65, 0x5f, 0x36, 0x38, 0x2f, 0x4d, 0x61, 0x74, 0x4d, 0x75,
  0x6c, 0x3b, 0x73, 0x65, 0x71, 0x75, 0x65, 0x6e, 0x74, 0x69, 0x61, 0x6c,
  0x5f, 0x32, 0x32, 0x2f, 0x64, 0x65, 0x6e, 0x73, 0x65, 0x5f, 0x36, 0x38,
  0x2f, 0x42, 0x69, 0x61, 0x73, 0x41, 0x64, 0x64, 0x00, 0x00, 0x00, 0x00,
  0x02, 0x00, 0x00, 0x00, 0x01, 0x00, 0x00, 0x00, 0x03, 0x00, 0x00, 0x00,
  0xf4, 0xfc, 0xff, 0xff, 0x14, 0x00, 0x00, 0x00, 0x1c, 0x00, 0x00, 0x00,
  0x1c, 0x00, 0x00, 0x00, 0x09, 0x00, 0x00, 0x00, 0x74, 0x00, 0x00, 0x00,
  0x02, 0x00, 0x00, 0x00, 0xff, 0xff, 0xff, 0xff, 0x0a, 0x00, 0x00, 0x00,
  0xe0, 0xfc, 0xff, 0xff, 0x58, 0x00, 0x00, 0x00, 0x73, 0x65, 0x71, 0x75,
  0x65, 0x6e, 0x74, 0x69, 0x61, 0x6c, 0x5f, 0x32, 0x32, 0x2f, 0x64, 0x65,
  0x6e, 0x73, 0x65, 0x5f, 0x36, 0x37, 0x2f, 0x4d, 0x61, 0x74, 0x4d, 0x75,
  0x6c, 0x3b, 0x73, 0x65, 0x71, 0x75, 0x65, 0x6e, 0x74, 0x69, 0x61, 0x6c,
  0x5f, 0x32, 0x32, 0x2f, 0x64, 0x65, 0x6e, 0x73, 0x65, 0x5f, 0x36, 0x37,
  0x2f, 0x52, 0x65, 0x6c, 0x75, 0x3b, 0x73, 0x65, 0x71, 0x75, 0x65, 0x6e,
  0x74, 0x69, 0x61, 0x6c, 0x5f, 0x32, 0x32, 0x2f, 0x64, 0x65, 0x6e, 0x73,
  0x65, 0x5f, 0x36, 0x37, 0x2f, 0x42, 0x69, 0x61, 0x73, 0x41, 0x64, 0x64,
  0x00, 0x00, 0x00, 0x00, 0x02, 0x00, 0x00, 0x00, 0x01, 0x00, 0x00, 0x00,
  0x0a, 0x00, 0x00, 0x00, 0x88, 0xfd, 0xff, 0xff, 0x14, 0x00, 0x00, 0x00,
  0x1c, 0x00, 0x00, 0x00, 0x1c, 0x00, 0x00, 0x00, 0x08, 0x00, 0x00, 0x00,
  0x74, 0x00, 0x00, 0x00, 0x02, 0x00, 0x00, 0x00, 0xff, 0xff, 0xff, 0xff,
  0x0a, 0x00, 0x00, 0x00, 0x74, 0xfd, 0xff, 0xff, 0x58, 0x00, 0x00, 0x00,
  0x73, 0x65, 0x71, 0x75, 0x65, 0x6e, 0x74, 0x69, 0x61, 0x6c, 0x5f, 0x32,
  0x32, 0x2f, 0x64, 0x65, 0x6e, 0x73, 0x65, 0x5f, 0x36, 0x36, 0x2f, 0x4d,
  0x61, 0x74, 0x4d, 0x75, 0x6c, 0x3b, 0x73, 0x65, 0x71, 0x75, 0x65, 0x6e,
  0x74, 0x69, 0x61, 0x6c, 0x5f, 0x32, 0x32, 0x2f, 0x64, 0x65, 0x6e, 0x73,
  0x65, 0x5f, 0x36, 0x36, 0x2f, 0x52, 0x65, 0x6c, 0x75, 0x3b, 0x73, 0x65,
  0x71, 0x75, 0x65, 0x6e, 0x74, 0x69, 0x61, 0x6c, 0x5f, 0x32, 0x32, 0x2f,
  0x64, 0x65, 0x6e, 0x73, 0x65, 0x5f, 0x36, 0x36, 0x2f, 0x42, 0x69, 0x61,
  0x73, 0x41, 0x64, 0x64, 0x00, 0x00, 0x00, 0x00, 0x02, 0x00, 0x00, 0x00,
  0x01, 0x00, 0x00, 0x00, 0x0a, 0x00, 0x00, 0x00, 0x7e, 0xfe, 0xff, 0xff,
  0x10, 0x00, 0x00, 0x00, 0x10, 0x00, 0x00, 0x00, 0x07, 0x00, 0x00, 0x00,
  0x2c, 0x00, 0x00, 0x00, 0xf8, 0xfd, 0xff, 0xff, 0x1d, 0x00, 0x00, 0x00,
  0x73, 0x65, 0x71, 0x75, 0x65, 0x6e, 0x74, 0x69, 0x61, 0x6c, 0x5f, 0x32,
  0x32, 0x2f, 0x64, 0x65, 0x6e, 0x73, 0x65, 0x5f, 0x36, 0x38, 0x2f, 0x4d,
  0x61, 0x74, 0x4d, 0x75, 0x6c, 0x00, 0x00, 0x00, 0x02, 0x00, 0x00, 0x00,
  0x03, 0x00, 0x00, 0x00, 0x0a, 0x00, 0x00, 0x00, 0xc6, 0xfe, 0xff, 0xff,
  0x10, 0x00, 0x00, 0x00, 0x10, 0x00, 0x00, 0x00, 0x06, 0x00, 0x00, 0x00,
  0x2c, 0x00, 0x00, 0x00, 0x40, 0xfe, 0xff, 0xff, 0x1d, 0x00, 0x00, 0x00,
  0x73, 0x65, 0x71, 0x75, 0x65, 0x6e, 0x74, 0x69, 0x61, 0x6c, 0x5f, 0x32,
  0x32, 0x2f, 0x64, 0x65, 0x6e, 0x73, 0x65, 0x5f, 0x36, 0x37, 0x2f, 0x4d,
  0x61, 0x74, 0x4d, 0x75, 0x6c, 0x00, 0x00, 0x00, 0x02, 0x00, 0x00, 0x00,
  0x0a, 0x00, 0x00, 0x00, 0x0a, 0x00, 0x00, 0x00, 0x0e, 0xff, 0xff, 0xff,
  0x10, 0x00, 0x00, 0x00, 0x10, 0x00, 0x00, 0x00, 0x05, 0x00, 0x00, 0x00,
  0x2c, 0x00, 0x00, 0x00, 0x88, 0xfe, 0xff, 0xff, 0x1d, 0x00, 0x00, 0x00,
  0x73, 0x65, 0x71, 0x75, 0x65, 0x6e, 0x74, 0x69, 0x61, 0x6c, 0x5f, 0x32,
  0x32, 0x2f, 0x64, 0x65, 0x6e, 0x73, 0x65, 0x5f, 0x36, 0x36, 0x2f, 0x4d,
  0x61, 0x74, 0x4d, 0x75, 0x6c, 0x00, 0x00, 0x00, 0x02, 0x00, 0x00, 0x00,
  0x0a, 0x00, 0x00, 0x00, 0x78, 0x00, 0x00, 0x00, 0x56, 0xff, 0xff, 0xff,
  0x10, 0x00, 0x00, 0x00, 0x10, 0x00, 0x00, 0x00, 0x04, 0x00, 0x00, 0x00,
  0x3c, 0x00, 0x00, 0x00, 0xd0, 0xfe, 0xff, 0xff, 0x2d, 0x00, 0x00, 0x00,
  0x73, 0x65, 0x71, 0x75, 0x65, 0x6e, 0x74, 0x69, 0x61, 0x6c, 0x5f, 0x32,
  0x32, 0x2f, 0x64, 0x65, 0x6e, 0x73, 0x65, 0x5f, 0x36, 0x36, 0x2f, 0x42,
  0x69, 0x61, 0x73, 0x41, 0x64, 0x64, 0x2f, 0x52, 0x65, 0x61, 0x64, 0x56,
  0x61, 0x72, 0x69, 0x61, 0x62, 0x6c, 0x65, 0x4f, 0x70, 0x00, 0x00, 0x00,
  0x01, 0x00, 0x00, 0x00, 0x0a, 0x00, 0x00, 0x00, 0xaa, 0xff, 0xff, 0xff,
  0x10, 0x00, 0x00, 0x00, 0x10, 0x00, 0x00, 0x00, 0x03, 0x00, 0x00, 0x00,
  0x3c, 0x00, 0x00, 0x00, 0x24, 0xff, 0xff, 0xff, 0x2d, 0x00, 0x00, 0x00,
  0x73, 0x65, 0x71, 0x75, 0x65, 0x6e, 0x74, 0x69, 0x61, 0x6c, 0x5f, 0x32,
  0x32, 0x2f, 0x64, 0x65, 0x6e, 0x73, 0x65, 0x5f, 0x36, 0x37, 0x2f, 0x42,
  0x69, 0x61, 0x73, 0x41, 0x64, 0x64, 0x2f, 0x52, 0x65, 0x61, 0x64, 0x56,
  0x61, 0x72, 0x69, 0x61, 0x62, 0x6c, 0x65, 0x4f, 0x70, 0x00, 0x00, 0x00,
  0x01, 0x00, 0x00, 0x00, 0x0a, 0x00, 0x00, 0x00, 0x00, 0x00, 0x0e, 0x00,
  0x14, 0x00, 0x10, 0x00, 0x00, 0x00, 0x0c, 0x00, 0x08, 0x00, 0x04, 0x00,
  0x0e, 0x00, 0x00, 0x00, 0x10, 0x00, 0x00, 0x00, 0x10, 0x00, 0x00, 0x00,
  0x02, 0x00, 0x00, 0x00, 0x3c, 0x00, 0x00, 0x00, 0x88, 0xff, 0xff, 0xff,
  0x2d, 0x00, 0x00, 0x00, 0x73, 0x65, 0x71, 0x75, 0x65, 0x6e, 0x74, 0x69,
  0x61, 0x6c, 0x5f, 0x32, 0x32, 0x2f, 0x64, 0x65, 0x6e, 0x73, 0x65, 0x5f,
  0x36, 0x38, 0x2f, 0x42, 0x69, 0x61, 0x73, 0x41, 0x64, 0x64, 0x2f, 0x52,
  0x65, 0x61, 0x64, 0x56, 0x61, 0x72, 0x69, 0x61, 0x62, 0x6c, 0x65, 0x4f,
  0x70, 0x00, 0x00, 0x00, 0x01, 0x00, 0x00, 0x00, 0x03, 0x00, 0x00, 0x00,
  0x14, 0x00, 0x18, 0x00, 0x14, 0x00, 0x00, 0x00, 0x10, 0x00, 0x0c, 0x00,
  0x08, 0x00, 0x00, 0x00, 0x00, 0x00, 0x04, 0x00, 0x14, 0x00, 0x00, 0x00,
  0x14, 0x00, 0x00, 0x00, 0x20, 0x00, 0x00, 0x00, 0x20, 0x00, 0x00, 0x00,
  0x01, 0x00, 0x00, 0x00, 0x40, 0x00, 0x00, 0x00, 0x02, 0x00, 0x00, 0x00,
  0xff, 0xff, 0xff, 0xff, 0x78, 0x00, 0x00, 0x00, 0x04, 0x00, 0x04, 0x00,
  0x04, 0x00, 0x00, 0x00, 0x20, 0x00, 0x00, 0x00, 0x73, 0x65, 0x72, 0x76,
  0x69, 0x6e, 0x67, 0x5f, 0x64, 0x65, 0x66, 0x61, 0x75, 0x6c, 0x74, 0x5f,
  0x64, 0x65, 0x6e, 0x73, 0x65, 0x5f, 0x36, 0x36, 0x5f, 0x69, 0x6e, 0x70,
  0x75, 0x74, 0x3a, 0x30, 0x00, 0x00, 0x00, 0x00, 0x02, 0x00, 0x00, 0x00,
  0x01, 0x00, 0x00, 0x00, 0x78, 0x00, 0x00, 0x00, 0x02, 0x00, 0x00, 0x00,
  0x20, 0x00, 0x00, 0x00, 0x04, 0x00, 0x00, 0x00, 0xf4, 0xff, 0xff, 0xff,
  0x19, 0x00, 0x00, 0x00, 0x00, 0x00, 0x00, 0x19, 0x0c, 0x00, 0x0c, 0x00,
  0x0b, 0x00, 0x00, 0x00, 0x00, 0x00, 0x04, 0x00, 0x0c, 0x00, 0x00, 0x00,
  0x09, 0x00, 0x00, 0x00, 0x00, 0x00, 0x00, 0x09
};


