const unsigned char model[] = {
  0x1c, 0x00, 0x00, 0x00, 0x54, 0x46, 0x4c, 0x33, 0x14, 0x00, 0x20, 0x00,
  0x1c, 0x00, 0x18, 0x00, 0x14, 0x00, 0x10, 0x00, 0x0c, 0x00, 0x00, 0x00,
  0x08, 0x00, 0x04, 0x00, 0x14, 0x00, 0x00, 0x00, 0x1c, 0x00, 0x00, 0x00,
  0x98, 0x00, 0x00, 0x00, 0xf0, 0x00, 0x00, 0x00, 0x70, 0x18, 0x00, 0x00,
  0x80, 0x18, 0x00, 0x00, 0x44, 0x1e, 0x00, 0x00, 0x03, 0x00, 0x00, 0x00,
  0x01, 0x00, 0x00, 0x00, 0x10, 0x00, 0x00, 0x00, 0x00, 0x00, 0x0a, 0x00,
  0x10, 0x00, 0x0c, 0x00, 0x08, 0x00, 0x04, 0x00, 0x0a, 0x00, 0x00, 0x00,
  0x0c, 0x00, 0x00, 0x00, 0x1c, 0x00, 0x00, 0x00, 0x3c, 0x00, 0x00, 0x00,
  0x0f, 0x00, 0x00, 0x00, 0x73, 0x65, 0x72, 0x76, 0x69, 0x6e, 0x67, 0x5f,
  0x64, 0x65, 0x66, 0x61, 0x75, 0x6c, 0x74, 0x00, 0x01, 0x00, 0x00, 0x00,
  0x04, 0x00, 0x00, 0x00, 0x90, 0xff, 0xff, 0xff, 0x0a, 0x00, 0x00, 0x00,
  0x04, 0x00, 0x00, 0x00, 0x08, 0x00, 0x00, 0x00, 0x64, 0x65, 0x6e, 0x73,
  0x65, 0x5f, 0x31, 0x34, 0x00, 0x00, 0x00, 0x00, 0x01, 0x00, 0x00, 0x00,
  0x04, 0x00, 0x00, 0x00, 0x76, 0xe7, 0xff, 0xff, 0x04, 0x00, 0x00, 0x00,
  0x0e, 0x00, 0x00, 0x00, 0x64, 0x65, 0x6e, 0x73, 0x65, 0x5f, 0x31, 0x32,
  0x5f, 0x69, 0x6e, 0x70, 0x75, 0x74, 0x00, 0x00, 0x02, 0x00, 0x00, 0x00,
  0x34, 0x00, 0x00, 0x00, 0x04, 0x00, 0x00, 0x00, 0xdc, 0xff, 0xff, 0xff,
  0x0d, 0x00, 0x00, 0x00, 0x04, 0x00, 0x00, 0x00, 0x13, 0x00, 0x00, 0x00,
  0x43, 0x4f, 0x4e, 0x56, 0x45, 0x52, 0x53, 0x49, 0x4f, 0x4e, 0x5f, 0x4d,
  0x45, 0x54, 0x41, 0x44, 0x41, 0x54, 0x41, 0x00, 0x08, 0x00, 0x0c, 0x00,
  0x08, 0x00, 0x04, 0x00, 0x08, 0x00, 0x00, 0x00, 0x0c, 0x00, 0x00, 0x00,
  0x04, 0x00, 0x00, 0x00, 0x13, 0x00, 0x00, 0x00, 0x6d, 0x69, 0x6e, 0x5f,
  0x72, 0x75, 0x6e, 0x74, 0x69, 0x6d, 0x65, 0x5f, 0x76, 0x65, 0x72, 0x73,
  0x69, 0x6f, 0x6e, 0x00, 0x0e, 0x00, 0x00, 0x00, 0x7c, 0x17, 0x00, 0x00,
  0x74, 0x17, 0x00, 0x00, 0x50, 0x17, 0x00, 0x00, 0x18, 0x17, 0x00, 0x00,
  0xe0, 0x16, 0x00, 0x00, 0x20, 0x03, 0x00, 0x00, 0x80, 0x01, 0x00, 0x00,
  0xa8, 0x00, 0x00, 0x00, 0xa0, 0x00, 0x00, 0x00, 0x98, 0x00, 0x00, 0x00,
  0x90, 0x00, 0x00, 0x00, 0x88, 0x00, 0x00, 0x00, 0x68, 0x00, 0x00, 0x00,
  0x04, 0x00, 0x00, 0x00, 0x2a, 0xe8, 0xff, 0xff, 0x04, 0x00, 0x00, 0x00,
  0x54, 0x00, 0x00, 0x00, 0x0c, 0x00, 0x00, 0x00, 0x08, 0x00, 0x0e, 0x00,
  0x08, 0x00, 0x04, 0x00, 0x08, 0x00, 0x00, 0x00, 0x10, 0x00, 0x00, 0x00,
  0x24, 0x00, 0x00, 0x00, 0x00, 0x00, 0x06, 0x00, 0x08, 0x00, 0x04, 0x00,
  0x06, 0x00, 0x00, 0x00, 0x04, 0x00, 0x00, 0x00, 0x00, 0x00, 0x00, 0x00,
  0x00, 0x00, 0x0a, 0x00, 0x10, 0x00, 0x0c, 0x00, 0x08, 0x00, 0x04, 0x00,
  0x0a, 0x00, 0x00, 0x00, 0x02, 0x00, 0x00, 0x00, 0x02, 0x00, 0x00, 0x00,
  0x04, 0x00, 0x00, 0x00, 0x05, 0x00, 0x00, 0x00, 0x32, 0x2e, 0x39, 0x2e,
  0x32, 0x00, 0x00, 0x00, 0x8a, 0xe8, 0xff, 0xff, 0x04, 0x00, 0x00, 0x00,
  0x10, 0x00, 0x00, 0x00, 0x31, 0x2e, 0x35, 0x2e, 0x30, 0x00, 0x00, 0x00,
  0x00, 0x00, 0x00, 0x00, 0x00, 0x00, 0x00, 0x00, 0x94, 0xe3, 0xff, 0xff,
  0x98, 0xe3, 0xff, 0xff, 0x9c, 0xe3, 0xff, 0xff, 0xa0, 0xe3, 0xff, 0xff,
  0xb6, 0xe8, 0xff, 0xff, 0x04, 0x00, 0x00, 0x00, 0xc8, 0x00, 0x00, 0x00,
  0x6f, 0x9a, 0xf5, 0x3e, 0x0c, 0x90, 0x7b, 0xbf, 0x9c, 0xe5, 0x5e, 0x3f,
  0xd6, 0x04, 0x8e, 0xbf, 0x8d, 0x10, 0x90, 0x3e, 0x84, 0x17, 0x99, 0xbe,
  0x9f, 0xa1, 0x7d, 0x3f, 0x55, 0xbe, 0xaa, 0x3e, 0x71, 0x46, 0xe4, 0xbe,
  0x65, 0x51, 0x79, 0x3f, 0xf9, 0x28, 0x5d, 0xbe, 0xa6, 0x8a, 0x59, 0xbf,
  0x75, 0x84, 0x13, 0xbe, 0x25, 0x20, 0xaa, 0x3e, 0xaa, 0xf9, 0xda, 0x3e,
  0xc1, 0x0b, 0xa8, 0xbf, 0x99, 0xa2, 0xc7, 0xbd, 0x7d, 0x24, 0x4e, 0xbf,
  0xcc, 0x24, 0x6c, 0x3f, 0x50, 0xd1, 0xcd, 0xbf, 0xb1, 0x62, 0xaf, 0x3e,
  0xba, 0xca, 0x33, 0xbf, 0x30, 0x97, 0xe2, 0xbe, 0x01, 0xd9, 0x06, 0x3f,
  0xa0, 0xc8, 0xff, 0xbf, 0x71, 0x28, 0x8c, 0xbf, 0x61, 0x47, 0x31, 0xbe,
  0xa1, 0xc4, 0xf1, 0x3d, 0x76, 0xa2, 0x19, 0x3f, 0xdf, 0xe9, 0x76, 0x3f,
  0xce, 0x2f, 0xf8, 0x3e, 0xc6, 0x71, 0x94, 0x3f, 0x90, 0x3d, 0xe3, 0x3e,
  0x88, 0xea, 0x31, 0x3f, 0x13, 0x0e, 0x13, 0x3e, 0x06, 0x38, 0x1a, 0x3f,
  0xdf, 0xbb, 0x1c, 0xbf, 0xb5, 0x83, 0x81, 0xbf, 0x5b, 0x0a, 0x50, 0xbe,
  0x0c, 0xf2, 0x35, 0xbf, 0x72, 0xdb, 0x65, 0xbf, 0x2b, 0x2d, 0x28, 0xbd,
  0x76, 0xde, 0x93, 0xbe, 0x91, 0x44, 0x87, 0xbf, 0x30, 0xe1, 0x96, 0xbf,
  0x69, 0x67, 0x8f, 0x3f, 0xf8, 0xe0, 0x3c, 0xbe, 0x63, 0xdc, 0x3d, 0x3f,
  0x64, 0xfb, 0xf2, 0x3e, 0xb0, 0xbe, 0x8e, 0xbf, 0x8a, 0xe9, 0xff, 0xff,
  0x04, 0x00, 0x00, 0x00, 0x90, 0x01, 0x00, 0x00, 0x19, 0x28, 0x37, 0x3b,
  0x3a, 0x7c, 0x29, 0x39, 0x2d, 0x1b, 0x76, 0x3b, 0x77, 0xb6, 0x0e, 0x3b,
  0x51, 0xc3, 0xe2, 0x38, 0x20, 0xed, 0x17, 0x39, 0xb9, 0x22, 0x2b, 0x3b,
  0x60, 0x7b, 0xb0, 0xba, 0xd0, 0x1f, 0xe1, 0xb7, 0x38, 0x4b, 0xb1, 0xba,
  0x44, 0xb2, 0x57, 0x3b, 0x5a, 0x23, 0xc9, 0x3a, 0xf3, 0xae, 0x49, 0x3d,
  0xfc, 0xc9, 0x36, 0x3e, 0xff, 0x93, 0x9e, 0xb8, 0xd9, 0x55, 0x1c, 0x39,
  0x0d, 0x6a, 0x95, 0x3b, 0xfa, 0x1f, 0xdc, 0xbd, 0xbe, 0x99, 0x0c, 0xb9,
  0x45, 0x72, 0x41, 0x3a, 0x44, 0x0c, 0x8f, 0xb9, 0x80, 0x8c, 0xf0, 0x37,
  0xd1, 0x7a, 0xd5, 0xb9, 0x7b, 0x37, 0x03, 0xba, 0x9a, 0xb1, 0x8b, 0xb8,
  0xfe, 0x9c, 0x3b, 0x39, 0x98, 0x3c, 0x7a, 0xba, 0x41, 0x16, 0x92, 0xba,
  0x49, 0xde, 0xbb, 0xb8, 0x85, 0x49, 0x0d, 0xba, 0x01, 0xe2, 0x57, 0x3b,
  0xa3, 0xad, 0xfd, 0x3a, 0x27, 0x80, 0x8a, 0x3b, 0xb8, 0x4d, 0x92, 0x3b,
  0x78, 0xa9, 0x1a, 0xb9, 0x1e, 0x06, 0x53, 0x39, 0xc8, 0x4c, 0xa3, 0x3d,
  0xe2, 0x5d, 0x5f, 0x3a, 0xae, 0xbe, 0xd7, 0x37, 0x89, 0xbf, 0x41, 0xbd,
  0x0f, 0xc9, 0xbe, 0x3e, 0x89, 0x38, 0x85, 0xb9, 0xa8, 0x52, 0xb2, 0x3a,
  0x40, 0xd3, 0x1b, 0xb8, 0xcf, 0x41, 0x67, 0xb9, 0xc2, 0xd5, 0x90, 0x38,
  0xe8, 0x05, 0x85, 0x39, 0x09, 0x99, 0x3d, 0xba, 0xf7, 0xc0, 0xb6, 0x38,
  0xbf, 0x56, 0xa5, 0xba, 0x6b, 0xd3, 0xa1, 0x3a, 0x63, 0xfb, 0x14, 0xba,
  0xee, 0x1c, 0xcd, 0x3a, 0x52, 0xa4, 0xd1, 0x3d, 0xb4, 0x3e, 0x69, 0x39,
  0x1f, 0x4b, 0x93, 0x39, 0x97, 0x0d, 0x00, 0x3b, 0x5d, 0x5d, 0x83, 0xbd,
  0x2c, 0x13, 0xed, 0xb7, 0x74, 0x87, 0x10, 0x3e, 0x90, 0x7d, 0x51, 0xbb,
  0xc4, 0xac, 0xc8, 0xb9, 0x56, 0x34, 0x84, 0xbb, 0x09, 0xf3, 0xdd, 0xbb,
  0xd0, 0x3a, 0x55, 0xb8, 0x54, 0x46, 0xae, 0x39, 0x77, 0x69, 0x81, 0xbb,
  0xea, 0xea, 0xed, 0x38, 0xc8, 0x55, 0xd4, 0x37, 0xf3, 0xdb, 0x0b, 0x39,
  0xf5, 0x50, 0xa1, 0xbb, 0x34, 0xec, 0x05, 0xba, 0x9a, 0xe0, 0x9d, 0xbb,
  0x07, 0x2e, 0x59, 0xbb, 0x85, 0x8c, 0x42, 0xb9, 0xb7, 0x26, 0x4d, 0x39,
  0x8e, 0x39, 0x82, 0xbb, 0x9f, 0x95, 0xc5, 0xb9, 0xba, 0xa0, 0x80, 0xb8,
  0xfc, 0x1f, 0xbc, 0x3e, 0x1c, 0x8a, 0x40, 0xba, 0x5d, 0xdf, 0x19, 0x39,
  0xcc, 0xd4, 0x97, 0xba, 0x76, 0x16, 0xd1, 0xb9, 0xa9, 0x50, 0x04, 0xb9,
  0xdf, 0x43, 0xda, 0xb9, 0x00, 0x86, 0x57, 0xb6, 0x87, 0x5c, 0xc1, 0x3e,
  0x3c, 0x8e, 0x70, 0x38, 0xa9, 0xf7, 0x81, 0x3a, 0x9f, 0xe9, 0x24, 0xba,
  0xa0, 0x5c, 0xb6, 0x3e, 0xee, 0x56, 0x81, 0xb9, 0x9d, 0x42, 0x36, 0xbb,
  0x44, 0x8c, 0x64, 0xb9, 0x3a, 0x4c, 0x2d, 0x39, 0xf8, 0xff, 0x01, 0xb9,
  0x48, 0x16, 0x0b, 0x39, 0x5a, 0xfa, 0x01, 0x39, 0xc6, 0x29, 0xdb, 0x38,
  0x26, 0xeb, 0xff, 0xff, 0x04, 0x00, 0x00, 0x00, 0xb0, 0x13, 0x00, 0x00,
  0x50, 0x39, 0x42, 0x3e, 0x1b, 0x2c, 0x62, 0xbd, 0x30, 0x86, 0x08, 0x3d,
  0xaa, 0x68, 0x8f, 0x3e, 0x19, 0x6f, 0x92, 0xbd, 0xf6, 0xee, 0x47, 0xbe,
  0x4e, 0x19, 0x7f, 0x3e, 0x55, 0x23, 0x16, 0x3e, 0x41, 0x70, 0x10, 0x3e,
  0xc8, 0x86, 0x38, 0x3e, 0x5b, 0xd7, 0x4d, 0x3c, 0xcd, 0xe4, 0x24, 0xbd,
  0x54, 0xa8, 0xa2, 0x3e, 0xe0, 0xbb, 0x5d, 0xbe, 0x2b, 0x0f, 0xc2, 0xbe,
  0x15, 0x4f, 0xe6, 0xbd, 0xcb, 0xb1, 0x51, 0x3e, 0x7e, 0xaa, 0x92, 0x3e,
  0xc4, 0x7d, 0x7f, 0x3e, 0xf9, 0xac, 0x75, 0xbe, 0x89, 0x82, 0x24, 0x3e,
  0x87, 0xa0, 0x8d, 0x3e, 0xf1, 0xc1, 0x00, 0x3c, 0xfe, 0xac, 0x7d, 0xbe,
  0x57, 0xdb, 0x9f, 0xbd, 0x9c, 0x9c, 0xae, 0x3e, 0xaa, 0xd5, 0x72, 0x3e,
  0x24, 0xb9, 0x16, 0x3c, 0x1b, 0x23, 0x01, 0xbd, 0x7c, 0xd5, 0x4e, 0xbc,
  0xd8, 0xfd, 0x3e, 0x3d, 0x84, 0xf2, 0x9b, 0xbe, 0xd9, 0x06, 0x6d, 0xbe,
  0x63, 0x0b, 0x42, 0xbd, 0xb9, 0xeb, 0x6a, 0x3c, 0x31, 0x60, 0x0f, 0x3e,
  0x36, 0x34, 0x99, 0x3b, 0x49, 0x2f, 0x3b, 0xbd, 0x8d, 0x28, 0x99, 0x3e,
  0x4d, 0x56, 0x4f, 0x3e, 0x7a, 0x5c, 0x2c, 0xbd, 0xdf, 0xfb, 0x8c, 0xbe,
  0xcd, 0x61, 0xb7, 0xbe, 0x37, 0x19, 0xeb, 0x3d, 0x40, 0xd4, 0xca, 0x3e,
  0xd2, 0xf4, 0xa4, 0x3e, 0x27, 0x11, 0x5f, 0xbe, 0x66, 0xb7, 0x0f, 0x3e,
  0xa0, 0x7f, 0x4e, 0x3e, 0xfa, 0xfa, 0xf3, 0x3d, 0xb8, 0x88, 0xa8, 0xbe,
  0x64, 0xc2, 0x01, 0x3e, 0x6b, 0x2d, 0x95, 0x3c, 0x61, 0xef, 0xb8, 0x3e,
  0xda, 0x68, 0x56, 0x3d, 0x48, 0x66, 0x6b, 0xbd, 0x08, 0x2d, 0x54, 0x3e,
  0x44, 0x59, 0xfa, 0x3d, 0xeb, 0x19, 0xed, 0x3e, 0x79, 0x64, 0xdb, 0xbd,
  0x1c, 0x2c, 0x63, 0xbe, 0xe1, 0xae, 0x7a, 0xbd, 0xad, 0x3d, 0x63, 0x3e,
  0xc9, 0xeb, 0x17, 0x3e, 0x07, 0xbc, 0xc4, 0xbd, 0x8f, 0x0c, 0x77, 0x3e,
  0x43, 0x0e, 0x1d, 0x3e, 0xa3, 0x33, 0xa9, 0x3e, 0x8b, 0x0b, 0xce, 0xbe,
  0xf1, 0xaa, 0xcb, 0xbc, 0x96, 0x6d, 0x36, 0x3e, 0xfd, 0x3d, 0x83, 0x3e,
  0xed, 0x8b, 0xb6, 0x3e, 0xae, 0xc7, 0x46, 0xbd, 0xfd, 0x23, 0x7d, 0xbe,
  0x7f, 0x7d, 0xaf, 0xbc, 0x7f, 0x98, 0x00, 0x3f, 0x5e, 0xad, 0x0d, 0xbd,
  0x36, 0x22, 0xc1, 0xbd, 0x0d, 0xe5, 0x09, 0x3e, 0xba, 0xf2, 0x5f, 0x3e,
  0xb0, 0x65, 0x51, 0x3e, 0x55, 0x29, 0x2d, 0x3e, 0xbb, 0xa8, 0x69, 0xbe,
  0x05, 0x40, 0xa1, 0x3d, 0xe4, 0x73, 0x0d, 0x3f, 0x54, 0x8e, 0x01, 0xbe,
  0x88, 0xcb, 0xbf, 0x3d, 0x82, 0xa2, 0x48, 0x3e, 0xfa, 0x86, 0x38, 0x3a,
  0x75, 0xaf, 0xb5, 0x3e, 0xdc, 0x2f, 0x5f, 0x3e, 0x16, 0x9c, 0xfd, 0xbd,
  0x38, 0x6c, 0x0f, 0x3e, 0xbd, 0x70, 0x34, 0x3f, 0xe1, 0xa2, 0x49, 0xbe,
  0x51, 0xaf, 0x4e, 0xbe, 0xc7, 0xf0, 0x69, 0x3e, 0x86, 0x24, 0x6c, 0x3e,
  0x4b, 0x4e, 0xaf, 0x3e, 0xc9, 0x57, 0x0d, 0xbd, 0x1b, 0x07, 0x38, 0x3d,
  0x38, 0x0a, 0xaf, 0x3b, 0xed, 0x20, 0xc6, 0x3e, 0xab, 0x78, 0x3f, 0xbd,
  0xa9, 0xc0, 0x8a, 0xbe, 0xb4, 0xe7, 0xc2, 0xbd, 0x28, 0xf5, 0x8e, 0xbc,
  0x9c, 0xe2, 0x1c, 0x3e, 0x25, 0xaa, 0xed, 0xba, 0x97, 0x49, 0xf0, 0x3c,
  0xd1, 0x18, 0x60, 0x3e, 0xec, 0x4b, 0x1f, 0x3f, 0xd6, 0x7d, 0x8a, 0xbe,
  0xa7, 0xab, 0x95, 0x3d, 0x75, 0x21, 0x89, 0x3c, 0x06, 0x94, 0x95, 0xbe,
  0xe1, 0x8b, 0x2a, 0x3e, 0x18, 0x39, 0x2a, 0x3e, 0x49, 0xfa, 0x3b, 0xbe,
  0xaf, 0x27, 0x3b, 0x3e, 0x71, 0x12, 0xfc, 0x3e, 0xba, 0xed, 0x54, 0x3b,
  0xfe, 0x55, 0x85, 0x3d, 0x06, 0x0f, 0xe5, 0x3d, 0x26, 0x3f, 0x55, 0xbe,
  0x2e, 0x91, 0xcd, 0xbd, 0x8d, 0x38, 0x8a, 0x3d, 0x64, 0xbd, 0x40, 0x3e,
  0x89, 0xc2, 0x20, 0x3e, 0x3d, 0x84, 0x9d, 0x3e, 0x25, 0x94, 0x2b, 0x3d,
  0x27, 0x92, 0x86, 0x3e, 0xdd, 0x04, 0x66, 0x3d, 0x1f, 0xca, 0x8a, 0x3e,
  0x1d, 0x3c, 0x75, 0x3d, 0x25, 0x8e, 0x97, 0x3e, 0x39, 0x06, 0x05, 0xbd,
  0xb9, 0xd4, 0x04, 0xbe, 0xaf, 0x63, 0xa2, 0x3e, 0x84, 0xdf, 0xe9, 0xbd,
  0xd7, 0x90, 0x26, 0x3e, 0xd0, 0x77, 0x0c, 0xbe, 0x49, 0x60, 0x67, 0x3e,
  0x8e, 0x85, 0xa1, 0xbe, 0xf9, 0x68, 0x23, 0x3e, 0x31, 0x8f, 0x5f, 0xbd,
  0x61, 0xaa, 0x37, 0x3e, 0x76, 0x46, 0x79, 0x3e, 0x2d, 0x9a, 0x25, 0xbd,
  0xe0, 0xb7, 0xa9, 0x3d, 0x41, 0x17, 0x85, 0xbe, 0xdd, 0x22, 0xb1, 0x3e,
  0xba, 0x57, 0xa8, 0xbe, 0xc6, 0xd5, 0xf9, 0x3c, 0x4f, 0xb0, 0xb8, 0xbd,
  0x20, 0x69, 0x88, 0x3e, 0x7d, 0xb5, 0x81, 0x3e, 0xff, 0x0e, 0x66, 0x3d,
  0x3c, 0xed, 0x85, 0xbe, 0xf8, 0xfb, 0x44, 0xbe, 0x1b, 0xf8, 0x87, 0x3e,
  0x11, 0x7a, 0xbc, 0xbd, 0xcb, 0x02, 0x5c, 0x3e, 0xa4, 0xa0, 0xe2, 0xbc,
  0x03, 0x31, 0x81, 0x3e, 0x42, 0xb0, 0x96, 0x3e, 0xa6, 0xd2, 0x69, 0x3b,
  0xe2, 0x39, 0x04, 0xbe, 0xf2, 0x37, 0x99, 0x3c, 0x76, 0xd7, 0x24, 0x3e,
  0x0f, 0x78, 0xd5, 0xbe, 0x45, 0xdc, 0xfa, 0xbd, 0x20, 0xae, 0xe7, 0x3d,
  0xd4, 0x1c, 0x66, 0x3e, 0x25, 0x05, 0xdf, 0x3d, 0x38, 0x24, 0x69, 0x3c,
  0xab, 0x58, 0x4d, 0xbb, 0x43, 0x74, 0x02, 0x3e, 0xb7, 0xfb, 0x23, 0x3e,
  0x76, 0xc6, 0xc3, 0xbe, 0x84, 0x2e, 0x22, 0x3d, 0xa4, 0x6b, 0x80, 0xbe,
  0x72, 0x44, 0xc9, 0x3e, 0xac, 0x74, 0xc6, 0x3e, 0x7b, 0xfa, 0x3a, 0xbe,
  0xbc, 0xde, 0x5c, 0x3e, 0x38, 0xfc, 0xdf, 0xbd, 0x2e, 0xdf, 0x9d, 0x3d,
  0xfc, 0xda, 0x16, 0xbf, 0x97, 0xa2, 0xa5, 0x3d, 0x40, 0x37, 0x2a, 0x3e,
  0x45, 0x52, 0x41, 0x3e, 0xce, 0xfe, 0x63, 0x3e, 0xe1, 0xfa, 0x71, 0xbe,
  0xca, 0x94, 0x34, 0xbe, 0x70, 0x02, 0xf1, 0xbd, 0xc0, 0x41, 0xca, 0x3e,
  0x11, 0x44, 0x99, 0xbe, 0x13, 0xf7, 0x0b, 0x3e, 0x0f, 0x8b, 0x4f, 0xbe,
  0x41, 0xed, 0x8e, 0x3e, 0x69, 0x60, 0x19, 0x3f, 0x01, 0x2b, 0x7c, 0xbe,
  0x76, 0x47, 0x81, 0xbd, 0x3c, 0x81, 0x60, 0x3e, 0x93, 0x49, 0x08, 0x3f,
  0x41, 0xfc, 0x1a, 0xbf, 0x40, 0x4b, 0xa4, 0x3e, 0x7f, 0xfa, 0xd5, 0x3c,
  0xd9, 0xda, 0xaf, 0x3d, 0x50, 0xfd, 0xb7, 0x3e, 0x5c, 0xa4, 0x0a, 0x3e,
  0x1e, 0x8b, 0x83, 0x3e, 0x7f, 0xc3, 0xbd, 0x3d, 0xe7, 0x01, 0xb0, 0x3e,
  0xda, 0x5f, 0x12, 0xbf, 0xab, 0xb2, 0x8e, 0x3e, 0x9e, 0x25, 0xb7, 0xbd,
  0x55, 0x78, 0x83, 0x3e, 0xff, 0xaa, 0xec, 0x3e, 0x5b, 0xda, 0x48, 0x3e,
  0x59, 0xfd, 0xf4, 0xbd, 0xa6, 0x98, 0x04, 0xbd, 0x94, 0x42, 0x98, 0x3d,
  0x2a, 0xb9, 0x08, 0xbf, 0x1e, 0xfc, 0x0a, 0x3e, 0x3f, 0x79, 0xa6, 0xbd,
  0x5a, 0x7f, 0xfe, 0x3d, 0xf7, 0x08, 0x52, 0x3e, 0x29, 0x62, 0x8f, 0x3d,
  0xcc, 0x86, 0x44, 0xbe, 0xd8, 0x63, 0x0a, 0xbe, 0x0f, 0x87, 0x91, 0x3e,
  0xa0, 0xab, 0x3e, 0xbf, 0x12, 0x01, 0x6e, 0x3e, 0x3e, 0x19, 0x57, 0xbe,
  0xd2, 0xb2, 0xa5, 0x3e, 0xc1, 0x31, 0x34, 0x3e, 0xeb, 0x60, 0x16, 0x3d,
  0x1b, 0xe8, 0xb7, 0xbd, 0xd4, 0xef, 0xa9, 0x3d, 0x37, 0x38, 0xac, 0x3c,
  0xc4, 0xdc, 0xac, 0xbe, 0xff, 0x7a, 0xd0, 0x3c, 0x29, 0xb6, 0x54, 0xbe,
  0x93, 0xde, 0x96, 0x3e, 0x8f, 0x32, 0x03, 0x3e, 0x2a, 0xed, 0x7d, 0x3d,
  0x63, 0xd7, 0x0e, 0xbe, 0xc1, 0x28, 0xfc, 0x3d, 0x40, 0x67, 0x28, 0xbe,
  0x8e, 0x9b, 0x51, 0x3e, 0x94, 0x99, 0x6a, 0xbd, 0xe0, 0xe4, 0x0b, 0x3e,
  0x80, 0xd6, 0xe3, 0xbd, 0xdc, 0x7e, 0x1e, 0xbe, 0x46, 0x30, 0x0e, 0x3d,
  0x4a, 0xe8, 0x81, 0x3e, 0xf9, 0x78, 0x3c, 0xbe, 0x26, 0x5b, 0x06, 0x3e,
  0x93, 0x85, 0x16, 0xbd, 0xb2, 0x28, 0x85, 0x3e, 0xaa, 0x34, 0x92, 0x3d,
  0x47, 0x7d, 0x95, 0x3e, 0x83, 0x57, 0x61, 0xbd, 0xf9, 0x94, 0xac, 0x3d,
  0xb0, 0xdf, 0xb7, 0x3d, 0x4a, 0xd9, 0x83, 0xbd, 0xc5, 0x81, 0xa3, 0xbd,
  0x2b, 0xcc, 0x88, 0x3d, 0x6d, 0x07, 0x65, 0x3e, 0xdf, 0xfb, 0x8f, 0xbd,
  0x33, 0x47, 0xdc, 0x3d, 0xd4, 0xb9, 0x1d, 0xbd, 0x7e, 0xbf, 0x12, 0xbe,
  0xfa, 0x3f, 0x64, 0x3d, 0xcd, 0x83, 0x3a, 0x3d, 0x3f, 0x20, 0x91, 0x3b,
  0x33, 0x2a, 0xba, 0xbd, 0x20, 0xde, 0x89, 0xbd, 0x49, 0x25, 0x76, 0x3d,
  0x35, 0x7e, 0x58, 0x3e, 0xd1, 0x21, 0xc5, 0xbd, 0x12, 0x8f, 0x5b, 0xbe,
  0xfc, 0x2d, 0x9c, 0x3c, 0x3e, 0xc1, 0x8d, 0xbd, 0x91, 0x0c, 0x5b, 0xbe,
  0x35, 0xd4, 0x9e, 0x3d, 0x81, 0xb3, 0x8b, 0x3e, 0x9f, 0xac, 0x7f, 0x3c,
  0x7a, 0x2e, 0x96, 0x3d, 0x47, 0x7d, 0x2f, 0xbe, 0xb8, 0x83, 0xfa, 0xbd,
  0x40, 0x06, 0x2e, 0xbe, 0xdc, 0xe8, 0x09, 0x3e, 0xf2, 0x1e, 0x65, 0x3e,
  0xa4, 0xbf, 0x50, 0xbe, 0xbb, 0x7b, 0xb6, 0x3e, 0x06, 0xe8, 0x21, 0xbc,
  0xf2, 0xe7, 0x3d, 0x3e, 0x44, 0xdc, 0x41, 0x3e, 0x82, 0x48, 0x87, 0xbe,
  0xd8, 0xab, 0x25, 0xbd, 0x27, 0x2a, 0xb0, 0x3e, 0xf1, 0xb2, 0xb4, 0x3c,
  0xa6, 0x82, 0x91, 0xbb, 0x04, 0x9c, 0x18, 0x3e, 0x22, 0x31, 0xba, 0x3d,
  0x7f, 0xaf, 0xd9, 0x3d, 0x86, 0xf0, 0x5d, 0x3e, 0x83, 0x7f, 0x0b, 0xbe,
  0x2d, 0x68, 0x99, 0xbd, 0xd8, 0x07, 0xdc, 0x3b, 0x8d, 0x2d, 0x82, 0xbb,
  0x20, 0x68, 0xd7, 0xbd, 0x11, 0x6b, 0x94, 0x3e, 0xd0, 0x49, 0xd1, 0xbc,
  0xb6, 0x01, 0xa4, 0x3e, 0xf6, 0xb2, 0xb6, 0x3d, 0xed, 0xcc, 0xbc, 0x3d,
  0x8d, 0xe8, 0x13, 0x3e, 0xbd, 0xb1, 0x1e, 0x3e, 0x5a, 0x19, 0xe0, 0xbc,
  0x6c, 0x0e, 0x53, 0x3e, 0x21, 0xde, 0x1b, 0x3e, 0x8f, 0xee, 0x93, 0xbe,
  0x43, 0x47, 0x43, 0x3e, 0xa1, 0x09, 0x9e, 0x3e, 0xa5, 0xdd, 0x53, 0x3e,
  0x05, 0xcc, 0x40, 0x3e, 0x40, 0x2e, 0xd5, 0x3d, 0x04, 0x4b, 0xbf, 0x3b,
  0x4c, 0x78, 0x39, 0xbd, 0x22, 0x6d, 0xc8, 0x3e, 0xde, 0xc6, 0x50, 0xbd,
  0xce, 0x69, 0x08, 0xbc, 0x73, 0x52, 0x0a, 0x3f, 0x38, 0x4e, 0x70, 0xbc,
  0x30, 0xdb, 0x4b, 0x3e, 0x9d, 0xec, 0x95, 0xbc, 0x1f, 0x75, 0x26, 0xbe,
  0x35, 0x84, 0x1c, 0xbe, 0x9f, 0x5a, 0xd3, 0x3e, 0xf0, 0xce, 0x08, 0xbe,
  0x10, 0xe5, 0x18, 0x3d, 0xaf, 0xd9, 0xcf, 0x3e, 0x84, 0x84, 0x11, 0xbd,
  0x61, 0x24, 0x01, 0xbd, 0xe4, 0x51, 0xde, 0x3e, 0x58, 0x0b, 0x17, 0xbe,
  0xe7, 0x7b, 0xb5, 0x3d, 0xba, 0x3e, 0x8d, 0x3e, 0xf0, 0xfb, 0x48, 0xb9,
  0x13, 0x1f, 0xa1, 0xbd, 0x0e, 0x0d, 0xcb, 0x3e, 0x4a, 0x13, 0xd5, 0x3c,
  0xe2, 0xfe, 0x13, 0xbe, 0xea, 0x69, 0x90, 0x3e, 0xf6, 0x57, 0x98, 0xbe,
  0xb0, 0xe5, 0x84, 0x3c, 0x63, 0x51, 0xa2, 0x3d, 0xff, 0x1f, 0xe1, 0x3d,
  0x8b, 0xf6, 0x8b, 0x3e, 0x68, 0x5b, 0x22, 0x3e, 0x81, 0x04, 0x87, 0xbc,
  0xe3, 0xaa, 0x73, 0x3e, 0x0f, 0x2e, 0x08, 0x3e, 0x61, 0x61, 0x02, 0xbe,
  0x00, 0x8b, 0x92, 0x3d, 0x0e, 0x79, 0xae, 0x3e, 0x97, 0xa6, 0x3e, 0xbe,
  0xe9, 0xb3, 0x8d, 0x3e, 0x6b, 0xea, 0xab, 0x3e, 0xe6, 0x82, 0x64, 0xbe,
  0x8e, 0xf0, 0x97, 0x3d, 0x0f, 0x77, 0xd1, 0x3e, 0x74, 0x67, 0x05, 0xbc,
  0x04, 0x72, 0xc7, 0x3e, 0x33, 0x2f, 0x34, 0x3e, 0xfe, 0xc0, 0x34, 0x3e,
  0xfa, 0x43, 0x96, 0x3e, 0xc1, 0xee, 0x6f, 0xbe, 0xf3, 0xd8, 0x56, 0x3e,
  0xfa, 0xd1, 0x2c, 0x3d, 0x95, 0x02, 0xb2, 0x3d, 0xbe, 0xa6, 0x89, 0xbe,
  0xe2, 0x68, 0xa0, 0x3d, 0x34, 0x41, 0x3e, 0x3e, 0xbf, 0xab, 0x43, 0x3e,
  0xb6, 0x9d, 0xb8, 0xbc, 0xb2, 0x11, 0xca, 0xbd, 0x85, 0xb7, 0x10, 0x3e,
  0x90, 0x52, 0x56, 0x3d, 0x54, 0x6c, 0xd7, 0x3d, 0xe7, 0xab, 0x84, 0xbe,
  0x6b, 0x7f, 0xb8, 0x3e, 0x85, 0x59, 0x9c, 0xbd, 0x2d, 0x21, 0x7d, 0x3c,
  0x47, 0xee, 0x73, 0x3c, 0x0f, 0x4e, 0x51, 0xbe, 0xbd, 0xa2, 0x99, 0x3c,
  0xd8, 0xc0, 0x9d, 0x3d, 0x1c, 0xa6, 0x85, 0x3d, 0x2a, 0x57, 0xd5, 0xbd,
  0xc6, 0x85, 0xd9, 0x3d, 0xef, 0xf9, 0x75, 0x3e, 0x9b, 0xaf, 0x15, 0xbd,
  0x6e, 0x7c, 0xd6, 0x3d, 0x85, 0x1a, 0x6c, 0xbe, 0x9c, 0x71, 0x9e, 0x3d,
  0xd5, 0xd6, 0x4a, 0x3e, 0x2f, 0xf4, 0x7d, 0x3e, 0xbf, 0x69, 0x2c, 0xbe,
  0x3a, 0xce, 0xcf, 0x3e, 0xed, 0xe5, 0xb5, 0x3e, 0x2c, 0x48, 0x08, 0x3d,
  0xf4, 0x9c, 0x29, 0xbe, 0x91, 0xc7, 0x42, 0xbe, 0x0d, 0xc2, 0x7f, 0x3e,
  0xa0, 0xf3, 0xdf, 0x3d, 0x2e, 0xa5, 0xd8, 0x3e, 0x1a, 0x1f, 0x6e, 0xbd,
  0xa3, 0x91, 0xab, 0x3e, 0x6f, 0x37, 0x99, 0x3e, 0x6c, 0x14, 0x10, 0x3e,
  0xd0, 0x52, 0x46, 0xbe, 0xa2, 0xbe, 0x29, 0xbe, 0x29, 0x89, 0x3f, 0x3e,
  0x35, 0x8f, 0x09, 0xbe, 0xeb, 0x38, 0xab, 0x3d, 0xb3, 0x75, 0x81, 0xbe,
  0xbd, 0xf3, 0x32, 0x3e, 0xf9, 0x8a, 0x76, 0x3e, 0x74, 0x45, 0x03, 0x3e,
  0x58, 0x49, 0x0c, 0x3e, 0x4e, 0xcc, 0x94, 0xbb, 0x1d, 0x89, 0x07, 0x3d,
  0x12, 0x0d, 0xd7, 0x3d, 0xd2, 0xc6, 0xe5, 0x3e, 0x6e, 0xd6, 0xa1, 0xbe,
  0xdf, 0xbb, 0xf5, 0x3e, 0xda, 0xf6, 0x30, 0x3e, 0x5d, 0x51, 0x94, 0x3e,
  0x3d, 0xe8, 0x14, 0xbe, 0xb2, 0x84, 0x09, 0x3e, 0x2d, 0x9b, 0x86, 0x3e,
  0xef, 0x0c, 0x5f, 0xbc, 0x21, 0x62, 0xcd, 0x3e, 0x3f, 0x83, 0x00, 0xbf,
  0x97, 0xa7, 0x50, 0x3e, 0xe0, 0x1c, 0x74, 0x3e, 0x4d, 0xc9, 0x9b, 0x3e,
  0x01, 0xa6, 0xac, 0xbd, 0x83, 0x6f, 0xce, 0xbe, 0x04, 0x41, 0xb9, 0x3d,
  0x97, 0xc9, 0x01, 0x3c, 0x3f, 0xe9, 0x14, 0x3e, 0x29, 0x1d, 0xb4, 0xbe,
  0x02, 0x8a, 0x8b, 0x3e, 0x73, 0x95, 0x8c, 0x3d, 0xe5, 0x98, 0x94, 0x3d,
  0x75, 0xc7, 0xe9, 0xbc, 0x4d, 0x97, 0x0d, 0xbe, 0x1a, 0x87, 0x87, 0x3e,
  0xa5, 0x7b, 0xbc, 0xbb, 0x19, 0x83, 0xb5, 0x3e, 0x0f, 0x06, 0xa1, 0xbe,
  0x88, 0x1c, 0xea, 0x3e, 0xd9, 0x09, 0x17, 0x3e, 0x88, 0x83, 0xa7, 0x3e,
  0xde, 0x7b, 0xd9, 0x3b, 0x55, 0xa3, 0xa6, 0x3d, 0xe6, 0x74, 0x2d, 0x3e,
  0xc5, 0x48, 0x72, 0x3c, 0x2f, 0x26, 0x5e, 0x3e, 0x0c, 0xf2, 0xdb, 0xbe,
  0xfe, 0x82, 0xac, 0x3e, 0x86, 0xbd, 0xb7, 0x3e, 0x28, 0x10, 0x73, 0x3e,
  0x40, 0xb3, 0x8b, 0x3c, 0xd3, 0x70, 0xe9, 0x3d, 0x81, 0x64, 0xa7, 0xbd,
  0x3e, 0xb4, 0x60, 0x3e, 0xbb, 0xd7, 0xde, 0x3d, 0x61, 0x50, 0xb7, 0xbe,
  0x91, 0x75, 0x9b, 0x3e, 0x80, 0x61, 0x86, 0x3c, 0x0e, 0xa6, 0x98, 0x3e,
  0x76, 0xbe, 0xa8, 0x3d, 0xc0, 0x4e, 0x08, 0xbd, 0xb2, 0x48, 0x7d, 0x3e,
  0xfd, 0xa2, 0xde, 0x3c, 0x28, 0xb4, 0x4c, 0x3e, 0xa8, 0x2f, 0xeb, 0xbd,
  0x32, 0x6e, 0x00, 0x3f, 0x17, 0xe3, 0x22, 0x3e, 0x4c, 0xbf, 0x22, 0x3d,
  0x75, 0xd6, 0xc4, 0xbd, 0xa6, 0x25, 0xb1, 0xbd, 0x34, 0x76, 0x4c, 0x3e,
  0x85, 0x33, 0xcd, 0x3d, 0x17, 0xce, 0xa1, 0x3e, 0xf4, 0x69, 0x7e, 0xbe,
  0x4b, 0x7d, 0x91, 0x3d, 0x28, 0x81, 0xe4, 0xbb, 0xdb, 0xf8, 0xf3, 0xbd,
  0xec, 0x90, 0xc8, 0x3c, 0x47, 0x06, 0x21, 0xbe, 0xc3, 0x55, 0xa3, 0x3c,
  0xea, 0x28, 0xb6, 0xbc, 0x62, 0xc4, 0x18, 0x3e, 0xec, 0xd0, 0x1c, 0xbe,
  0xfd, 0x81, 0x45, 0x3d, 0xfe, 0xed, 0xde, 0x3d, 0x78, 0x98, 0xaf, 0xbd,
  0xfc, 0xa2, 0x10, 0x3d, 0x5c, 0x8b, 0x46, 0x3d, 0xd6, 0x73, 0x35, 0xbe,
  0x07, 0x75, 0xc4, 0xbd, 0x31, 0x94, 0x92, 0x3d, 0xfe, 0x45, 0xff, 0xbd,
  0x9a, 0xdf, 0x1f, 0x3e, 0xd1, 0x06, 0xf2, 0xbd, 0xe7, 0xd2, 0x7b, 0x3d,
  0xe0, 0x46, 0x45, 0x3e, 0x44, 0x18, 0x93, 0x3d, 0xaf, 0x35, 0x63, 0x3d,
  0x6a, 0x0d, 0x0b, 0xbe, 0x09, 0xbb, 0x03, 0xbe, 0xd0, 0x2d, 0x63, 0x3d,
  0xbc, 0xce, 0x95, 0x3d, 0x99, 0xbb, 0x42, 0xbe, 0xc4, 0xfc, 0x32, 0x3e,
  0x16, 0xe4, 0x82, 0xba, 0x4d, 0x8c, 0xcf, 0xbb, 0xc6, 0xfe, 0x03, 0xbe,
  0x00, 0x09, 0x15, 0x3e, 0x0c, 0xb8, 0xfa, 0xbd, 0xdb, 0xad, 0x8d, 0xbd,
  0x4b, 0xc2, 0x82, 0x3b, 0x34, 0x9f, 0x31, 0xbe, 0x5c, 0x2c, 0xfb, 0xbd,
  0x8e, 0x3e, 0xf1, 0xbc, 0x4c, 0x97, 0x08, 0x3e, 0x0d, 0x02, 0x06, 0xbe,
  0x59, 0x0e, 0xae, 0xbd, 0xbd, 0x59, 0xd7, 0xbd, 0x69, 0x1b, 0x45, 0x3e,
  0xb2, 0xb7, 0xce, 0x3d, 0xcc, 0x3e, 0x1f, 0xbd, 0x93, 0x47, 0x41, 0x3e,
  0xea, 0xb3, 0x01, 0xbd, 0x6e, 0x58, 0x58, 0xbe, 0x4e, 0xc1, 0xab, 0xbd,
  0x86, 0x45, 0x76, 0x3d, 0xe6, 0xad, 0x44, 0xbe, 0x62, 0x2c, 0xa6, 0x3d,
  0x98, 0xf1, 0x81, 0x3d, 0xfe, 0xbb, 0x32, 0xbc, 0x9a, 0xf2, 0x1d, 0xbe,
  0x83, 0xd8, 0x06, 0xbe, 0xa8, 0x2b, 0x18, 0xbe, 0xd8, 0x0c, 0xcc, 0xbd,
  0x85, 0x27, 0xae, 0xbd, 0x0c, 0xe6, 0x01, 0xbe, 0x10, 0xb9, 0xb2, 0xbd,
  0x14, 0xbe, 0xa1, 0xbb, 0xfc, 0xb3, 0x45, 0x3e, 0x05, 0x14, 0xed, 0x3d,
  0x1d, 0xee, 0x9a, 0x3d, 0x0b, 0xe9, 0x15, 0x3e, 0xab, 0x1f, 0xe2, 0x3d,
  0x1b, 0xca, 0x07, 0xbe, 0x17, 0x54, 0x0e, 0x3e, 0xec, 0x3a, 0x5e, 0xbe,
  0xe8, 0x1d, 0x12, 0xbd, 0xd6, 0x40, 0x95, 0x3c, 0xe5, 0xd4, 0xd2, 0xbb,
  0xd1, 0x1b, 0x62, 0xbe, 0x8f, 0x4c, 0x15, 0xbe, 0x71, 0x2b, 0x71, 0x3d,
  0x69, 0x8d, 0xd1, 0x3d, 0xee, 0xca, 0x2f, 0xbe, 0xa9, 0x93, 0x3b, 0xbe,
  0xfa, 0xce, 0x6d, 0x3d, 0x4b, 0x3b, 0x4b, 0x3e, 0x37, 0x42, 0xc3, 0xbd,
  0x0d, 0x6d, 0xab, 0x3a, 0x6b, 0x56, 0x33, 0x3e, 0x52, 0x4b, 0xc9, 0xbd,
  0x9c, 0x28, 0x5d, 0xbd, 0xc7, 0xbd, 0xa3, 0xbd, 0x22, 0xae, 0xb1, 0x3c,
  0x02, 0xab, 0x63, 0xbd, 0xd0, 0x9a, 0xce, 0x3d, 0xdb, 0xa5, 0x5f, 0xbe,
  0x0d, 0x3c, 0xbe, 0x3d, 0x8d, 0x75, 0x1f, 0x3d, 0xc0, 0x17, 0xe0, 0xbd,
  0xb1, 0x1a, 0x18, 0x3c, 0x80, 0xb9, 0xbf, 0xbd, 0x1a, 0xc0, 0x95, 0xbd,
  0xe3, 0x59, 0x70, 0x3c, 0xb8, 0xcc, 0x51, 0xbe, 0x76, 0x05, 0x55, 0xbe,
  0xd9, 0xd4, 0x8c, 0xbb, 0xe5, 0xe4, 0x52, 0xbe, 0xfc, 0x88, 0x99, 0x3c,
  0xb4, 0x96, 0x10, 0xbe, 0xfa, 0xc7, 0x4d, 0xbe, 0x1d, 0x7e, 0x25, 0x3e,
  0x57, 0x44, 0x26, 0x3e, 0x45, 0xee, 0xbe, 0xbd, 0x5c, 0x99, 0xd0, 0xbd,
  0x8c, 0x24, 0xd6, 0x3d, 0x4d, 0x59, 0xbf, 0xbd, 0x66, 0x74, 0x02, 0x3e,
  0x5d, 0x01, 0x11, 0x3e, 0xd9, 0x70, 0x5a, 0xbe, 0x30, 0x76, 0xb2, 0xbd,
  0x58, 0x79, 0xc0, 0xbd, 0x42, 0xfe, 0x4a, 0x3e, 0xdd, 0x5c, 0xdc, 0x3d,
  0x4a, 0x7b, 0x41, 0x3e, 0x14, 0xef, 0x1d, 0xbe, 0xa1, 0x8e, 0x93, 0x3d,
  0x36, 0x32, 0x15, 0xbe, 0xba, 0x29, 0x00, 0xbe, 0x7b, 0x42, 0xc7, 0x3d,
  0xbc, 0x42, 0x51, 0xbe, 0x46, 0x2f, 0x94, 0xbc, 0xc6, 0x0a, 0x11, 0xbe,
  0x0c, 0xbd, 0xf9, 0xbd, 0xb1, 0x63, 0x4b, 0x3e, 0x42, 0x03, 0xee, 0x3b,
  0x4b, 0x08, 0x81, 0x3d, 0x00, 0xbb, 0x93, 0xbd, 0xa9, 0xe1, 0x1f, 0xbe,
  0xaf, 0x28, 0xda, 0xbc, 0x98, 0x61, 0x9f, 0xbd, 0x5b, 0x22, 0x26, 0x3e,
  0xc3, 0xa4, 0x12, 0xbd, 0x77, 0xbb, 0x55, 0xbe, 0x5d, 0x2c, 0x35, 0x3e,
  0x03, 0xf5, 0x8e, 0x3d, 0xec, 0xa3, 0xb5, 0xbc, 0x28, 0xb6, 0xe1, 0x3d,
  0x8f, 0x62, 0xa9, 0x3d, 0xe2, 0xb4, 0xd7, 0xbd, 0xae, 0x43, 0x30, 0xbe,
  0xc5, 0xcd, 0x41, 0xbe, 0xd1, 0xd6, 0x05, 0xbe, 0xf6, 0x33, 0x82, 0x3d,
  0x9f, 0x53, 0x16, 0x3e, 0x42, 0x84, 0xc2, 0xbd, 0x25, 0x9a, 0x3e, 0xbe,
  0xb9, 0x44, 0x32, 0x3e, 0xbd, 0xbe, 0x4a, 0xbe, 0x6a, 0x22, 0x9c, 0x3d,
  0x13, 0x2f, 0xad, 0x3d, 0xe5, 0x16, 0x12, 0xbd, 0x0a, 0x03, 0x4f, 0x3e,
  0x7b, 0xb8, 0xe4, 0x3d, 0xa9, 0x55, 0x33, 0x3e, 0x9e, 0x37, 0x3f, 0xbe,
  0x97, 0x78, 0x30, 0xbe, 0xd5, 0x4d, 0x8b, 0x3d, 0xce, 0x47, 0xd4, 0x3c,
  0x44, 0xe1, 0x4c, 0xbe, 0x5c, 0x41, 0x2b, 0xbe, 0x9f, 0xf0, 0x47, 0x3e,
  0x60, 0x1d, 0xfc, 0x3c, 0x36, 0x98, 0x1a, 0x3d, 0x78, 0x9c, 0x3e, 0x3c,
  0x5a, 0x4f, 0xb5, 0x3d, 0x32, 0x21, 0xa9, 0xbc, 0xdd, 0xc2, 0x9a, 0xbc,
  0x6d, 0xa7, 0x7c, 0x3d, 0x5e, 0x41, 0xfc, 0xbc, 0x8f, 0x42, 0x7d, 0x3d,
  0xe3, 0xdf, 0x70, 0x3b, 0x2b, 0x6a, 0x45, 0x3e, 0x8a, 0x77, 0x55, 0x3d,
  0xee, 0x5a, 0x38, 0x3e, 0x6a, 0xc7, 0x23, 0xbe, 0xab, 0x2b, 0x5a, 0xbe,
  0xb2, 0x6c, 0xee, 0xbd, 0x04, 0x30, 0x2d, 0x3e, 0x12, 0x71, 0xd4, 0xbb,
  0x49, 0x5a, 0x14, 0xbe, 0x01, 0x30, 0x1d, 0x3e, 0xb6, 0xbc, 0x3b, 0xbe,
  0xa9, 0xa2, 0x28, 0xbe, 0x4f, 0x4f, 0x53, 0xbe, 0x2a, 0x02, 0x91, 0xbd,
  0x5e, 0x0a, 0xad, 0xbc, 0x27, 0xb0, 0x08, 0xbe, 0xa6, 0x97, 0xb1, 0x3c,
  0xcd, 0x33, 0x05, 0xbc, 0x2b, 0x0e, 0xaa, 0xbc, 0xc5, 0x72, 0x13, 0xbe,
  0x26, 0xfb, 0xce, 0xbd, 0xf6, 0x48, 0xd7, 0xbd, 0x39, 0xbe, 0x0c, 0x3d,
  0x52, 0xe2, 0x28, 0x3e, 0xf4, 0x0f, 0x1a, 0x3e, 0x40, 0x32, 0xcc, 0x3b,
  0x36, 0x86, 0x11, 0x3c, 0x10, 0xb5, 0xf2, 0x3d, 0xf8, 0x18, 0x20, 0xbe,
  0xaf, 0x64, 0x05, 0x3d, 0x56, 0x63, 0xa7, 0x3d, 0x1b, 0xf0, 0xe7, 0x3d,
  0x74, 0xc0, 0x43, 0x3e, 0xa6, 0xc9, 0xfb, 0xbc, 0x97, 0xe3, 0x26, 0x3e,
  0x52, 0x79, 0x22, 0xbe, 0x48, 0xb9, 0xc6, 0xbd, 0x64, 0xc4, 0x3e, 0x3c,
  0xe9, 0x43, 0x16, 0x3e, 0x6d, 0xf5, 0xc8, 0x3d, 0xea, 0x2f, 0x39, 0x3d,
  0xe4, 0xaa, 0x2a, 0xbe, 0x31, 0x3a, 0x33, 0x3e, 0x6d, 0x6e, 0x0f, 0xbd,
  0x8e, 0x79, 0x21, 0xbe, 0x74, 0xb4, 0x64, 0x3d, 0xb9, 0xee, 0x8e, 0x3d,
  0xc6, 0x44, 0x59, 0x3c, 0x44, 0x69, 0x7c, 0xbd, 0x9f, 0x46, 0x13, 0xbe,
  0xcd, 0xf1, 0x90, 0x3d, 0x5e, 0x54, 0x44, 0xbc, 0x90, 0xb0, 0x3f, 0xbe,
  0x88, 0xb7, 0xc0, 0xbc, 0x8d, 0x2e, 0x3c, 0xbe, 0x11, 0xfa, 0xc6, 0xbd,
  0xd1, 0x9d, 0x70, 0xbc, 0x09, 0x47, 0x50, 0xbd, 0x86, 0xe0, 0xe7, 0xbd,
  0x10, 0x13, 0x1b, 0xbd, 0xe4, 0x1b, 0xe5, 0xbd, 0xf1, 0x70, 0x6e, 0x3d,
  0xff, 0x7b, 0x98, 0x3d, 0x8e, 0x51, 0x43, 0xbe, 0x5c, 0xf8, 0x40, 0x3e,
  0x2a, 0xe3, 0x74, 0x3d, 0xa2, 0x57, 0xec, 0xbd, 0x78, 0xdf, 0x08, 0x3e,
  0xb3, 0x3f, 0x52, 0xbd, 0x2c, 0x72, 0x06, 0xbe, 0xe1, 0x9b, 0x45, 0xbe,
  0x12, 0xba, 0x21, 0x3d, 0xaf, 0xe0, 0xd2, 0x3d, 0xc2, 0xed, 0x2a, 0x3d,
  0xbf, 0x0c, 0xa9, 0xbd, 0x7b, 0x0d, 0x05, 0x3e, 0x6a, 0xb0, 0x16, 0xbd,
  0x8d, 0xa7, 0xb7, 0xbc, 0xfe, 0x7f, 0x5b, 0x3e, 0xbf, 0x65, 0xe1, 0x3e,
  0xca, 0x6d, 0x75, 0x3e, 0xb9, 0xce, 0x37, 0x3c, 0xb3, 0xe6, 0x10, 0xbe,
  0x91, 0xee, 0xce, 0xbd, 0x8f, 0xf4, 0xcb, 0x3d, 0x29, 0x35, 0xcb, 0x3b,
  0x29, 0x75, 0x14, 0x3e, 0xc3, 0x40, 0xea, 0xbc, 0xbf, 0x5f, 0x57, 0x3e,
  0xdf, 0xee, 0x71, 0x3d, 0x5a, 0xef, 0x1d, 0xbe, 0xc6, 0x79, 0x8f, 0xbe,
  0x66, 0xa2, 0x2a, 0x3e, 0x88, 0xb0, 0x2f, 0x3e, 0xa9, 0xb5, 0x58, 0x3d,
  0xb1, 0x4b, 0xd4, 0xbd, 0xf3, 0x82, 0x11, 0xbd, 0x55, 0xfd, 0x75, 0x3e,
  0xaf, 0xdc, 0x2e, 0x3e, 0x27, 0x6e, 0x0a, 0xbe, 0xdb, 0x51, 0xe4, 0xbe,
  0x25, 0xd8, 0x9f, 0x3c, 0x1c, 0xe7, 0xa3, 0x3e, 0xb5, 0x4d, 0x71, 0x3e,
  0x39, 0x52, 0x80, 0x3e, 0x2c, 0x9e, 0x5f, 0xbd, 0x85, 0x77, 0xc2, 0xbc,
  0x1d, 0xeb, 0x2b, 0x3e, 0x6a, 0x42, 0xa5, 0x3e, 0x07, 0xbc, 0xb6, 0xbe,
  0xdf, 0x5a, 0x08, 0xbd, 0x9e, 0x72, 0x35, 0x3e, 0x57, 0xd1, 0xfd, 0x3d,
  0x1f, 0x90, 0xa8, 0x3d, 0x35, 0xfa, 0x5e, 0x3e, 0x87, 0xee, 0xfb, 0x3c,
  0xe5, 0x4f, 0x61, 0xbd, 0x70, 0x67, 0x7e, 0x3e, 0x39, 0x25, 0xde, 0xbe,
  0xa9, 0xaa, 0xa7, 0x3d, 0x8b, 0x25, 0x17, 0x3e, 0x6f, 0x75, 0x53, 0x3e,
  0x0d, 0xeb, 0x74, 0x3d, 0x2d, 0x87, 0xf7, 0x3d, 0x0d, 0x74, 0xaa, 0x3e,
  0x91, 0xcf, 0xa1, 0x3e, 0x14, 0xbc, 0xa6, 0x3d, 0xbc, 0xa1, 0x5d, 0xbe,
  0x79, 0xe3, 0x0d, 0xbe, 0x0f, 0x2d, 0x9f, 0x3d, 0x4a, 0xcd, 0x22, 0xbe,
  0x8a, 0x7d, 0xae, 0xbb, 0x85, 0x74, 0x95, 0x3d, 0xee, 0xb4, 0xa8, 0x3d,
  0x5b, 0xe3, 0xe6, 0x3d, 0x8f, 0xa3, 0x00, 0x3e, 0xbe, 0xd9, 0x00, 0xbe,
  0xe9, 0xf4, 0xec, 0xbd, 0xcf, 0xf8, 0xb2, 0x3e, 0x4b, 0x98, 0x15, 0x3d,
  0x1d, 0x1e, 0x3b, 0x3e, 0x03, 0xe5, 0x1d, 0x3d, 0xc8, 0x07, 0x99, 0x3e,
  0x0a, 0xda, 0x88, 0x3e, 0xbf, 0x40, 0x6b, 0x3e, 0xb3, 0x35, 0xe5, 0x3c,
  0x6c, 0x69, 0x09, 0x3d, 0x43, 0xed, 0xd9, 0x3d, 0x3a, 0x72, 0x3b, 0xbe,
  0x0f, 0xfe, 0x2a, 0x3e, 0x10, 0x03, 0x2b, 0xbc, 0xbd, 0xc2, 0xe8, 0x3d,
  0x6e, 0x32, 0x98, 0x3e, 0x88, 0x97, 0x8e, 0x3e, 0x5b, 0x05, 0xfd, 0xbd,
  0x36, 0xfb, 0x1c, 0xbe, 0xfd, 0xb4, 0x85, 0x3e, 0xfc, 0x89, 0x9c, 0xbe,
  0x0e, 0xea, 0x5a, 0x3e, 0xec, 0x29, 0xe2, 0x3b, 0x7b, 0xcb, 0x9c, 0x3d,
  0x1d, 0x6d, 0x26, 0x3e, 0x22, 0x27, 0x97, 0x3e, 0xff, 0x61, 0x45, 0x3d,
  0x09, 0x53, 0x84, 0xbc, 0x4f, 0xda, 0xbd, 0x3e, 0x46, 0x4b, 0x38, 0xbe,
  0x55, 0xba, 0xa9, 0xbd, 0x21, 0xd4, 0xc8, 0x3d, 0xa8, 0x76, 0x2b, 0x3e,
  0xb3, 0x6c, 0x72, 0x3d, 0x53, 0x32, 0xd4, 0x3e, 0xdd, 0xde, 0xca, 0xbc,
  0x0e, 0xfd, 0xc0, 0x3d, 0x98, 0x0d, 0x24, 0x3e, 0xb6, 0x21, 0xcb, 0xbd,
  0xcb, 0x79, 0xa0, 0x3e, 0xa1, 0x9f, 0x8d, 0x3e, 0xa8, 0xe8, 0xbe, 0x3d,
  0x98, 0x2d, 0x40, 0x3e, 0xb0, 0xb6, 0xb5, 0x3e, 0xd7, 0xcd, 0x9e, 0xbe,
  0x55, 0x7d, 0x68, 0xbd, 0xcf, 0x08, 0x86, 0x3e, 0x7c, 0xec, 0xa5, 0xbd,
  0xe7, 0xad, 0x9b, 0x3c, 0x2e, 0xaa, 0x25, 0xbe, 0x99, 0x66, 0xa6, 0xbd,
  0x9b, 0xdb, 0x1f, 0x3e, 0x92, 0x77, 0x61, 0x3c, 0x81, 0xe0, 0x76, 0xbe,
  0xba, 0x12, 0x20, 0x3e, 0x5d, 0xf1, 0x98, 0x3e, 0xd3, 0x0c, 0x65, 0x3d,
  0xde, 0x26, 0x10, 0xbd, 0xed, 0x0c, 0x77, 0x3d, 0x82, 0x7a, 0x3b, 0x3e,
  0xeb, 0x00, 0xca, 0x3d, 0x68, 0x28, 0xbb, 0x3e, 0xab, 0x2b, 0xe4, 0xbd,
  0x93, 0xd4, 0x4f, 0x3d, 0x46, 0x2b, 0x26, 0xbd, 0x9b, 0xf1, 0x90, 0x3e,
  0x72, 0x0b, 0x25, 0x3e, 0x54, 0x62, 0x09, 0x3f, 0x35, 0xbd, 0x5d, 0x3e,
  0xf6, 0xea, 0x0b, 0x3e, 0xcd, 0x29, 0xb7, 0x3e, 0x34, 0x6e, 0xd2, 0x3e,
  0x0a, 0x93, 0xad, 0xbd, 0xb6, 0xd8, 0x7d, 0xbd, 0xa8, 0xde, 0xe3, 0xbd,
  0x61, 0x50, 0xec, 0xbc, 0x21, 0x07, 0xb2, 0x3e, 0x28, 0xbb, 0x4c, 0x3e,
  0x22, 0x9a, 0x51, 0x3d, 0xb7, 0xec, 0x2a, 0x3e, 0xd1, 0xf5, 0xa6, 0x3e,
  0x5b, 0xfd, 0x2e, 0x3e, 0xf9, 0x4c, 0x29, 0x3e, 0xea, 0xd9, 0xb4, 0x3d,
  0x73, 0x2b, 0x0b, 0xbe, 0x56, 0x20, 0xf2, 0x3e, 0xcb, 0xcf, 0x6b, 0x3e,
  0xb4, 0x0c, 0xbc, 0x3e, 0xd5, 0xae, 0x18, 0x3e, 0x2a, 0xe3, 0x2e, 0x3f,
  0x9f, 0xe0, 0xf5, 0x3d, 0x02, 0x7f, 0x4b, 0xbe, 0xc2, 0x06, 0x69, 0xbd,
  0xe2, 0x4b, 0x18, 0x3e, 0x27, 0xc0, 0x9f, 0x3d, 0x9f, 0xd9, 0x43, 0x3e,
  0x63, 0x5c, 0x43, 0x3e, 0xc4, 0xe0, 0xa5, 0xbe, 0x05, 0xaf, 0x0c, 0x3e,
  0xb8, 0x12, 0x45, 0x3e, 0x7c, 0x9d, 0x8f, 0xbe, 0x14, 0x74, 0xb6, 0x3c,
  0x10, 0xba, 0x0e, 0xbe, 0xcf, 0x84, 0x20, 0x3e, 0xbe, 0x4a, 0xc8, 0x3e,
  0x1d, 0x5d, 0xe5, 0x3e, 0x6b, 0xa8, 0x11, 0xbe, 0x15, 0xfc, 0xd4, 0x3d,
  0x6f, 0xf0, 0xc2, 0xbd, 0x5e, 0x9a, 0x73, 0xbe, 0x8f, 0x52, 0x50, 0xbd,
  0x45, 0xfb, 0x4a, 0xbe, 0x54, 0xf7, 0xca, 0x3d, 0x01, 0x6f, 0xbe, 0x3e,
  0x96, 0xdc, 0x5a, 0x3e, 0x5e, 0xdd, 0x27, 0xbe, 0x03, 0xd2, 0xa5, 0x3e,
  0xde, 0x9c, 0x89, 0x3e, 0x83, 0x96, 0x63, 0xbe, 0xf6, 0xc6, 0x59, 0xbd,
  0x3d, 0x8f, 0x49, 0x3d, 0x60, 0xb6, 0xc5, 0xbe, 0x3f, 0x17, 0xb6, 0x3e,
  0x6d, 0xc8, 0x88, 0x3e, 0xe6, 0xa5, 0xa4, 0xbe, 0xf2, 0x9a, 0xc7, 0x3e,
  0xd1, 0xf4, 0x64, 0x3e, 0x54, 0x0d, 0x5e, 0xbe, 0xa7, 0x8c, 0x7e, 0xbe,
  0x74, 0xdd, 0xcf, 0x3d, 0x22, 0x40, 0x21, 0xbf, 0x5c, 0x2a, 0x2a, 0x3d,
  0x1c, 0xa3, 0xeb, 0x3e, 0xd3, 0x9e, 0xc7, 0xbe, 0x13, 0x66, 0xf8, 0x3e,
  0x0d, 0xf3, 0x1a, 0x3e, 0x9b, 0x45, 0x3e, 0xbe, 0x86, 0x83, 0x08, 0x3e,
  0xb7, 0xc8, 0x19, 0xbd, 0x67, 0xdb, 0xea, 0xbe, 0x77, 0x8a, 0xc8, 0x3d,
  0xa7, 0x38, 0xd3, 0x3e, 0xd2, 0x38, 0x1d, 0xbe, 0xcf, 0x17, 0x23, 0x3f,
  0xb3, 0x3c, 0x2d, 0x3e, 0x63, 0x89, 0xfa, 0xbd, 0xa8, 0xbb, 0x26, 0x3f,
  0xbb, 0x3b, 0x3b, 0xbe, 0x90, 0x19, 0x64, 0xbf, 0x3a, 0xfa, 0xa7, 0x3e,
  0x35, 0xa3, 0x55, 0x3e, 0xea, 0x62, 0xdb, 0xbd, 0xb5, 0xdb, 0x03, 0x3f,
  0xc7, 0x6b, 0x6e, 0xbd, 0xc7, 0xfd, 0x84, 0xbe, 0x17, 0x38, 0xd5, 0xbd,
  0x32, 0x58, 0x3e, 0xbe, 0xeb, 0x39, 0x20, 0xbf, 0x60, 0xa5, 0xd4, 0x3e,
  0x63, 0x18, 0x09, 0x3f, 0xdc, 0xf4, 0xec, 0xbd, 0xdd, 0x0a, 0x1c, 0x3f,
  0x87, 0x21, 0x4a, 0x3e, 0x86, 0x76, 0xbd, 0xbe, 0xcb, 0x59, 0x4b, 0xbd,
  0xe5, 0x78, 0x03, 0x3c, 0x2d, 0xc9, 0x72, 0xbf, 0xc8, 0x13, 0xaa, 0x3e,
  0x48, 0xf2, 0xe6, 0x3e, 0x23, 0xf9, 0x60, 0xbe, 0xb3, 0xb6, 0x18, 0x3f,
  0x2b, 0xe1, 0x67, 0x3e, 0x2d, 0xb5, 0x1f, 0xbe, 0x76, 0x55, 0xcd, 0x3e,
  0x5d, 0x7a, 0x16, 0x3b, 0x42, 0x07, 0x31, 0xbf, 0x7e, 0xa9, 0xbc, 0x3e,
  0x90, 0x76, 0xfe, 0x3e, 0xd6, 0x36, 0xd4, 0xbb, 0xa0, 0x7d, 0x04, 0x3f,
  0x62, 0x43, 0x8c, 0x3e, 0xf5, 0xc1, 0xb4, 0xbe, 0x90, 0xd7, 0x90, 0x3e,
  0xae, 0xde, 0x05, 0x3e, 0x04, 0x13, 0xbf, 0xbe, 0x7b, 0x3c, 0xf2, 0x3e,
  0xbb, 0x77, 0x25, 0x3e, 0xad, 0x2f, 0x8a, 0xbe, 0x42, 0x06, 0x11, 0x3f,
  0x65, 0xab, 0x15, 0xbd, 0x66, 0xd0, 0x4c, 0xbe, 0xe7, 0x42, 0x84, 0x3d,
  0x9c, 0x77, 0xda, 0xbd, 0x79, 0x9c, 0x4f, 0xbe, 0x4f, 0x82, 0xb0, 0x3d,
  0x56, 0x3b, 0x54, 0x3d, 0xf7, 0x73, 0xcd, 0x3d, 0x71, 0x37, 0x4c, 0xbe,
  0xfb, 0x3c, 0x74, 0xbd, 0x8a, 0xc2, 0xa7, 0xbd, 0x11, 0x5a, 0xfc, 0x3c,
  0x50, 0x57, 0x16, 0x3e, 0xb3, 0xb2, 0x22, 0xbe, 0x1c, 0x1f, 0xd5, 0x3d,
  0xeb, 0x01, 0x46, 0xbc, 0x4d, 0x1a, 0x40, 0xbe, 0x51, 0x9d, 0x1e, 0xbe,
  0x12, 0xd2, 0xa6, 0xbb, 0x32, 0xa1, 0x13, 0xbe, 0x9a, 0x4b, 0x3d, 0xbe,
  0xac, 0x94, 0x9f, 0xbc, 0x30, 0xb6, 0x16, 0xbe, 0xc2, 0x5e, 0x48, 0xbe,
  0x9f, 0xdd, 0x34, 0x3c, 0x25, 0x64, 0x5c, 0xbe, 0x64, 0x91, 0xb1, 0x3d,
  0xac, 0xbb, 0x97, 0xbd, 0x7e, 0xa3, 0x8d, 0x3d, 0xc0, 0xf5, 0xbb, 0x3c,
  0x4d, 0x83, 0xa8, 0x3d, 0xb1, 0x98, 0xcd, 0x3d, 0x0c, 0x24, 0x41, 0xbe,
  0xc9, 0x81, 0x69, 0xbc, 0xda, 0x65, 0xeb, 0x3c, 0x76, 0x3e, 0x50, 0x3d,
  0x16, 0xe9, 0x10, 0x3e, 0xaf, 0x93, 0x14, 0x3e, 0xd7, 0xa5, 0x16, 0x3e,
  0x1c, 0x77, 0xcf, 0x3d, 0x69, 0x2a, 0x21, 0x3e, 0xcd, 0x83, 0x2e, 0xbe,
  0xda, 0x01, 0x69, 0xbc, 0x7b, 0xda, 0x6d, 0x3d, 0xe9, 0xd9, 0xb2, 0xbd,
  0x8e, 0x08, 0x3b, 0xbe, 0xd3, 0x55, 0x26, 0xbd, 0x5f, 0x34, 0xf5, 0x3d,
  0x9a, 0xee, 0x34, 0xbe, 0xde, 0xbf, 0x0e, 0x3e, 0xd2, 0x9f, 0x00, 0x3e,
  0xc8, 0x03, 0x25, 0x3e, 0x4c, 0x01, 0x3c, 0xbd, 0x89, 0xde, 0x67, 0x3c,
  0x80, 0x54, 0x40, 0x3e, 0xb7, 0xf6, 0x19, 0x3e, 0xab, 0x78, 0xda, 0xbd,
  0x54, 0x2f, 0x91, 0x3b, 0x6f, 0x06, 0x16, 0x3e, 0x57, 0x9d, 0x9b, 0x3c,
  0xd4, 0x42, 0x48, 0x3e, 0xb8, 0xf7, 0xce, 0xbb, 0xd1, 0xbf, 0xb3, 0x3d,
  0xb0, 0xb9, 0xda, 0xbd, 0xe6, 0x55, 0x3f, 0x3e, 0x2d, 0x5a, 0x68, 0xbd,
  0x3e, 0x7a, 0xf9, 0xbd, 0x33, 0x10, 0x35, 0xbb, 0x03, 0x35, 0x9b, 0xbd,
  0xff, 0x95, 0xff, 0x3c, 0x7e, 0xe6, 0xce, 0x3c, 0xec, 0x20, 0xc1, 0xbd,
  0x53, 0xa4, 0xe9, 0xbd, 0x56, 0x04, 0x39, 0xbe, 0xf3, 0xa8, 0x4c, 0xbc,
  0x5d, 0x09, 0x20, 0x3e, 0xb8, 0x74, 0x97, 0x3c, 0xa6, 0x78, 0x7d, 0xbd,
  0x2f, 0x22, 0x52, 0xbe, 0x61, 0xab, 0x12, 0xbe, 0x61, 0x9e, 0x2e, 0xbc,
  0x4d, 0xf7, 0x38, 0x3e, 0x80, 0x5f, 0x14, 0xbe, 0xdc, 0x14, 0x5f, 0x3c,
  0xb3, 0xca, 0x89, 0xbd, 0x26, 0xf5, 0x49, 0xbe, 0xec, 0xe0, 0xc2, 0x3d,
  0x35, 0xf0, 0x83, 0x3c, 0xdc, 0x7b, 0x40, 0xbe, 0x1f, 0x77, 0xf7, 0x3d,
  0x18, 0x8e, 0x9c, 0xbb, 0x66, 0x9d, 0x56, 0xbe, 0xf3, 0x25, 0x2e, 0x3e,
  0xb0, 0x4d, 0x88, 0xbd, 0xfc, 0x09, 0x8b, 0x3d, 0xff, 0x4d, 0x0e, 0x3d,
  0x8e, 0x1d, 0x4a, 0xbe, 0xaa, 0x30, 0xe1, 0xbd, 0xb3, 0x30, 0xc8, 0x3c,
  0xda, 0x3d, 0x43, 0x3e, 0x81, 0xe4, 0x0c, 0xba, 0x25, 0x8b, 0x02, 0x3e,
  0xbd, 0x47, 0x92, 0xbc, 0x79, 0x3f, 0x1e, 0x3a, 0xed, 0x2d, 0x18, 0xbe,
  0x7e, 0x69, 0x90, 0xbc, 0x71, 0x5a, 0xac, 0x3d, 0x5d, 0xe6, 0xac, 0xbd,
  0x7e, 0x61, 0xc8, 0xbc, 0xa6, 0x17, 0x41, 0x3e, 0xd4, 0xe5, 0x46, 0xbe,
  0x72, 0x4a, 0x31, 0xbe, 0x25, 0xfb, 0x27, 0xbe, 0xc1, 0x04, 0x4f, 0xbe,
  0xd8, 0x73, 0xa7, 0x3d, 0x97, 0xdf, 0x03, 0xbe, 0x47, 0x2f, 0x03, 0xbe,
  0xd8, 0xda, 0x3c, 0x3e, 0xa3, 0xa3, 0x63, 0xbe, 0xa6, 0xe0, 0x3f, 0xbc,
  0x3a, 0x73, 0x27, 0x3d, 0x36, 0xa5, 0xe3, 0x3d, 0x38, 0x84, 0x56, 0xbe,
  0x1a, 0x8f, 0x35, 0x3d, 0x27, 0x80, 0x98, 0xbd, 0x2b, 0x9b, 0xcb, 0xba,
  0x86, 0xe1, 0xd7, 0xbd, 0xf2, 0x01, 0x1b, 0x3e, 0x85, 0xbb, 0x81, 0x3e,
  0xf3, 0xf3, 0xf8, 0x3d, 0xde, 0x80, 0x0f, 0x3e, 0xf4, 0x56, 0x34, 0x3e,
  0xf5, 0xac, 0xc0, 0x3d, 0xee, 0x0c, 0xb3, 0x3e, 0x86, 0x26, 0x1f, 0x3e,
  0x1e, 0xac, 0x6b, 0x3e, 0x62, 0x88, 0xe2, 0x3d, 0xd5, 0xe4, 0x61, 0xbd,
  0xe4, 0xce, 0xbc, 0x3d, 0x62, 0x2b, 0x00, 0x3f, 0x8c, 0x41, 0x8b, 0x3d,
  0xdd, 0x5e, 0x3e, 0xbe, 0x94, 0xe8, 0x58, 0x3d, 0x4c, 0x37, 0xb1, 0x3d,
  0xdc, 0xf5, 0xab, 0x3d, 0xba, 0xca, 0x65, 0xbd, 0x50, 0x7c, 0xbd, 0x3c,
  0x10, 0xf4, 0x06, 0xbe, 0x09, 0x78, 0xe5, 0x3e, 0xb4, 0x6e, 0x72, 0x3d,
  0x07, 0xd2, 0x3b, 0xbe, 0x60, 0x6a, 0xdb, 0xb8, 0x1b, 0x64, 0x8f, 0x3e,
  0xf6, 0x57, 0x5c, 0x3d, 0x6e, 0x88, 0x79, 0x3e, 0x35, 0x4a, 0x84, 0xbd,
  0x7b, 0x91, 0x20, 0xbe, 0x7f, 0x73, 0x52, 0x3d, 0x2e, 0x1b, 0xb8, 0x3e,
  0x6f, 0x2f, 0x81, 0x3d, 0xd0, 0x73, 0x45, 0x3e, 0xff, 0xe5, 0xe3, 0x3d,
  0x54, 0xfb, 0x3c, 0x3d, 0x63, 0x5a, 0xfb, 0x3c, 0x55, 0xb7, 0x95, 0x3d,
  0x42, 0x16, 0x1e, 0x3d, 0x5e, 0xe7, 0x43, 0x3e, 0x0f, 0x17, 0xef, 0x3d,
  0x40, 0x48, 0xb8, 0x3d, 0x00, 0x01, 0xab, 0x3e, 0x65, 0xeb, 0x10, 0xbe,
  0x08, 0xd7, 0xd9, 0xbd, 0xab, 0x74, 0x90, 0x3e, 0x3f, 0xcb, 0xe4, 0xbb,
  0x50, 0xdd, 0x5c, 0xbd, 0x2f, 0x06, 0xa0, 0x3e, 0xac, 0x53, 0xf0, 0x3e,
  0x3e, 0xc2, 0xdf, 0xbe, 0x61, 0x87, 0xa2, 0x3c, 0x2a, 0x00, 0xfb, 0x3d,
  0xac, 0x59, 0x95, 0xbc, 0x8c, 0xdf, 0x79, 0x3e, 0xa0, 0xff, 0x19, 0x3e,
  0x02, 0x0c, 0xa8, 0x3c, 0xf9, 0x4a, 0x53, 0x3b, 0x93, 0x1c, 0xc0, 0x3e,
  0x46, 0x7b, 0xdc, 0xbe, 0xf3, 0xc5, 0x56, 0x3e, 0x27, 0x2f, 0xa1, 0x3e,
  0x28, 0x1c, 0x8b, 0x3a, 0xe8, 0x2f, 0x4d, 0x3e, 0x3d, 0x11, 0x9a, 0x3e,
  0x72, 0x43, 0x15, 0x3d, 0x4d, 0xd7, 0xdf, 0x3a, 0x04, 0xf0, 0x5d, 0xbc,
  0x17, 0x0c, 0x16, 0xbf, 0xb1, 0x40, 0xb9, 0x3c, 0x5d, 0xec, 0x91, 0xbd,
  0xdf, 0x0b, 0x91, 0xbe, 0xc4, 0x62, 0x53, 0x3e, 0xb8, 0x5a, 0xbf, 0x3e,
  0xe0, 0xc5, 0x0d, 0x3e, 0x06, 0xde, 0x03, 0xbe, 0xd5, 0x24, 0xbe, 0xbc,
  0xc0, 0x7d, 0x1c, 0xbf, 0x62, 0x16, 0x51, 0x3e, 0xdb, 0x6d, 0x02, 0xbe,
  0xf7, 0x65, 0xdb, 0xbe, 0xd8, 0x47, 0x32, 0x3e, 0x53, 0x58, 0x06, 0x3f,
  0xb4, 0xa3, 0x7c, 0x3e, 0x93, 0xd9, 0x8c, 0xbe, 0x42, 0x30, 0x38, 0xbe,
  0x29, 0xbc, 0x4f, 0xbf, 0x59, 0xd4, 0xbd, 0xbc, 0x04, 0x55, 0xed, 0xbd,
  0x17, 0x5e, 0xe3, 0xbe, 0x0d, 0xac, 0x06, 0x3e, 0xf2, 0x91, 0xe4, 0x3e,
  0x65, 0xc7, 0x0d, 0x3e, 0xbe, 0x18, 0xfa, 0xbe, 0x9d, 0x10, 0x38, 0xbe,
  0xe1, 0xb6, 0x0f, 0xbf, 0xbd, 0xa0, 0x2e, 0xbe, 0x1f, 0x1b, 0x72, 0xbd,
  0x41, 0x0c, 0x7b, 0xbe, 0xa4, 0xde, 0xe8, 0xbd, 0xbf, 0xd4, 0x19, 0x3e,
  0x81, 0x40, 0x10, 0x3e, 0x67, 0xfe, 0x9d, 0xbe, 0x29, 0x15, 0xca, 0x3d,
  0x58, 0x58, 0xe2, 0xbe, 0xd7, 0xa5, 0xd0, 0x3c, 0x46, 0x48, 0xbc, 0x3e,
  0xf7, 0x53, 0x32, 0xbe, 0x1a, 0x11, 0x8c, 0xbd, 0x08, 0x16, 0xa3, 0xba,
  0xfc, 0x5e, 0x55, 0x3e, 0xc5, 0xad, 0x0c, 0x3e, 0x23, 0xd1, 0x17, 0x3e,
  0xf1, 0x7c, 0x01, 0xbf, 0xd7, 0xba, 0xbc, 0x3c, 0xdd, 0x58, 0xbe, 0x3e,
  0xa4, 0xb6, 0x4b, 0xbe, 0x47, 0xcf, 0x20, 0xbe, 0x72, 0x40, 0x3e, 0x3d,
  0x12, 0x54, 0x7a, 0x3e, 0x2b, 0x5f, 0x5f, 0xbe, 0x98, 0x91, 0xe0, 0xbd,
  0xa4, 0xca, 0x8d, 0xbe, 0x69, 0x23, 0xb2, 0x3c, 0x9d, 0xd9, 0xcd, 0x3e,
  0xe2, 0xfe, 0xff, 0xff, 0x04, 0x00, 0x00, 0x00, 0x28, 0x00, 0x00, 0x00,
  0x87, 0xf7, 0x87, 0x3d, 0x6f, 0xdc, 0xa5, 0x3d, 0x34, 0x41, 0x85, 0x3d,
  0x4c, 0x5b, 0x5a, 0x3d, 0x4c, 0xfd, 0x56, 0xbc, 0x6d, 0x1b, 0xf4, 0xbb,
  0x4b, 0xb3, 0x2d, 0x3d, 0x4d, 0xa5, 0xc2, 0x3d, 0x88, 0x56, 0xa1, 0xbc,
  0x2a, 0xf6, 0x0d, 0x3e, 0x16, 0xff, 0xff, 0xff, 0x04, 0x00, 0x00, 0x00,
  0x28, 0x00, 0x00, 0x00, 0x6d, 0x1e, 0x12, 0xbb, 0x18, 0x32, 0x58, 0xbc,
  0xf3, 0xee, 0x03, 0x3c, 0x0b, 0x0d, 0x0f, 0x3e, 0x9c, 0x9c, 0x7f, 0x3d,
  0x88, 0x2e, 0x24, 0x3d, 0x3d, 0x56, 0x19, 0x3d, 0x8e, 0xab, 0x8e, 0x3d,
  0x2e, 0x4e, 0x4e, 0x3e, 0x8c, 0xcb, 0xd0, 0x39, 0x4a, 0xff, 0xff, 0xff,
  0x04, 0x00, 0x00, 0x00, 0x14, 0x00, 0x00, 0x00, 0xff, 0x20, 0x0e, 0xbe,
  0xe8, 0x53, 0x43, 0x3e, 0xd5, 0x83, 0x41, 0x3a, 0xda, 0x61, 0x27, 0xbe,
  0x85, 0x7f, 0xca, 0x3d, 0x58, 0xfa, 0xff, 0xff, 0x5c, 0xfa, 0xff, 0xff,
  0x0f, 0x00, 0x00, 0x00, 0x4d, 0x4c, 0x49, 0x52, 0x20, 0x43, 0x6f, 0x6e,
  0x76, 0x65, 0x72, 0x74, 0x65, 0x64, 0x2e, 0x00, 0x01, 0x00, 0x00, 0x00,
  0x14, 0x00, 0x00, 0x00, 0x00, 0x00, 0x0e, 0x00, 0x18, 0x00, 0x14, 0x00,
  0x10, 0x00, 0x0c, 0x00, 0x08, 0x00, 0x04, 0x00, 0x0e, 0x00, 0x00, 0x00,
  0x14, 0x00, 0x00, 0x00, 0x1c, 0x00, 0x00, 0x00, 0x24, 0x01, 0x00, 0x00,
  0x28, 0x01, 0x00, 0x00, 0x2c, 0x01, 0x00, 0x00, 0x04, 0x00, 0x00, 0x00,
  0x6d, 0x61, 0x69, 0x6e, 0x00, 0x00, 0x00, 0x00, 0x04, 0x00, 0x00, 0x00,
  0xcc, 0x00, 0x00, 0x00, 0x84, 0x00, 0x00, 0x00, 0x50, 0x00, 0x00, 0x00,
  0x14, 0x00, 0x00, 0x00, 0x00, 0x00, 0x0e, 0x00, 0x1a, 0x00, 0x14, 0x00,
  0x10, 0x00, 0x0c, 0x00, 0x0b, 0x00, 0x04, 0x00, 0x0e, 0x00, 0x00, 0x00,
  0x1c, 0x00, 0x00, 0x00, 0x00, 0x00, 0x00, 0x09, 0x1c, 0x00, 0x00, 0x00,
  0x20, 0x00, 0x00, 0x00, 0x01, 0x00, 0x00, 0x00, 0x00, 0x00, 0x06, 0x00,
  0x08, 0x00, 0x04, 0x00, 0x06, 0x00, 0x00, 0x00, 0x00, 0x00, 0x80, 0x3f,
  0x01, 0x00, 0x00, 0x00, 0x0a, 0x00, 0x00, 0x00, 0x01, 0x00, 0x00, 0x00,
  0x09, 0x00, 0x00, 0x00, 0x9a, 0xff, 0xff, 0xff, 0x10, 0x00, 0x00, 0x00,
  0x00, 0x00, 0x00, 0x08, 0x0c, 0x00, 0x00, 0x00, 0x10, 0x00, 0x00, 0x00,
  0x20, 0xfb, 0xff, 0xff, 0x01, 0x00, 0x00, 0x00, 0x09, 0x00, 0x00, 0x00,
  0x03, 0x00, 0x00, 0x00, 0x08, 0x00, 0x00, 0x00, 0x06, 0x00, 0x00, 0x00,
  0x01, 0x00, 0x00, 0x00, 0xca, 0xff, 0xff, 0xff, 0x10, 0x00, 0x00, 0x00,
  0x00, 0x00, 0x00, 0x08, 0x10, 0x00, 0x00, 0x00, 0x14, 0x00, 0x00, 0x00,
  0xba, 0xff, 0xff, 0xff, 0x00, 0x00, 0x00, 0x01, 0x01, 0x00, 0x00, 0x00,
  0x08, 0x00, 0x00, 0x00, 0x03, 0x00, 0x00, 0x00, 0x07, 0x00, 0x00, 0x00,
  0x05, 0x00, 0x00, 0x00, 0x02, 0x00, 0x00, 0x00, 0x00, 0x00, 0x0e, 0x00,
  0x16, 0x00, 0x00, 0x00, 0x10, 0x00, 0x0c, 0x00, 0x0b, 0x00, 0x04, 0x00,
  0x0e, 0x00, 0x00, 0x00, 0x18, 0x00, 0x00, 0x00, 0x00, 0x00, 0x00, 0x08,
  0x18, 0x00, 0x00, 0x00, 0x1c, 0x00, 0x00, 0x00, 0x00, 0x00, 0x06, 0x00,
  0x08, 0x00, 0x07, 0x00, 0x06, 0x00, 0x00, 0x00, 0x00, 0x00, 0x00, 0x01,
  0x01, 0x00, 0x00, 0x00, 0x07, 0x00, 0x00, 0x00, 0x03, 0x00, 0x00, 0x00,
  0x00, 0x00, 0x00, 0x00, 0x04, 0x00, 0x00, 0x00, 0x03, 0x00, 0x00, 0x00,
  0x01, 0x00, 0x00, 0x00, 0x0a, 0x00, 0x00, 0x00, 0x01, 0x00, 0x00, 0x00,
  0x00, 0x00, 0x00, 0x00, 0x0b, 0x00, 0x00, 0x00, 0x0c, 0x04, 0x00, 0x00,
  0xa0, 0x03, 0x00, 0x00, 0x38, 0x03, 0x00, 0x00, 0xe0, 0x02, 0x00, 0x00,
  0x94, 0x02, 0x00, 0x00, 0x48, 0x02, 0x00, 0x00, 0xfc, 0x01, 0x00, 0x00,
  0x68, 0x01, 0x00, 0x00, 0xd4, 0x00, 0x00, 0x00, 0x5c, 0x00, 0x00, 0x00,
  0x04, 0x00, 0x00, 0x00, 0x34, 0xfc, 0xff, 0xff, 0x14, 0x00, 0x00, 0x00,
  0x1c, 0x00, 0x00, 0x00, 0x1c, 0x00, 0x00, 0x00, 0x0b, 0x00, 0x00, 0x00,
  0x34, 0x00, 0x00, 0x00, 0x02, 0x00, 0x00, 0x00, 0xff, 0xff, 0xff, 0xff,
  0x05, 0x00, 0x00, 0x00, 0x20, 0xfc, 0xff, 0xff, 0x19, 0x00, 0x00, 0x00,
  0x53, 0x74, 0x61, 0x74, 0x65, 0x66, 0x75, 0x6c, 0x50, 0x61, 0x72, 0x74,
  0x69, 0x74, 0x69, 0x6f, 0x6e, 0x65, 0x64, 0x43, 0x61, 0x6c, 0x6c, 0x3a,
  0x30, 0x00, 0x00, 0x00, 0x02, 0x00, 0x00, 0x00, 0x01, 0x00, 0x00, 0x00,
  0x05, 0x00, 0x00, 0x00, 0x88, 0xfc, 0xff, 0xff, 0x14, 0x00, 0x00, 0x00,
  0x1c, 0x00, 0x00, 0x00, 0x1c, 0x00, 0x00, 0x00, 0x0a, 0x00, 0x00, 0x00,
  0x54, 0x00, 0x00, 0x00, 0x02, 0x00, 0x00, 0x00, 0xff, 0xff, 0xff, 0xff,
  0x05, 0x00, 0x00, 0x00, 0x74, 0xfc, 0xff, 0xff, 0x3a, 0x00, 0x00, 0x00,
  0x73, 0x65, 0x71, 0x75, 0x65, 0x6e, 0x74, 0x69, 0x61, 0x6c, 0x5f, 0x34,
  0x2f, 0x64, 0x65, 0x6e, 0x73, 0x65, 0x5f, 0x31, 0x34, 0x2f, 0x4d, 0x61,
  0x74, 0x4d, 0x75, 0x6c, 0x3b, 0x73, 0x65, 0x71, 0x75, 0x65, 0x6e, 0x74,
  0x69, 0x61, 0x6c, 0x5f, 0x34, 0x2f, 0x64, 0x65, 0x6e, 0x73, 0x65, 0x5f,
  0x31, 0x34, 0x2f, 0x42, 0x69, 0x61, 0x73, 0x41, 0x64, 0x64, 0x00, 0x00,
  0x02, 0x00, 0x00, 0x00, 0x01, 0x00, 0x00, 0x00, 0x05, 0x00, 0x00, 0x00,
  0xfc, 0xfc, 0xff, 0xff, 0x14, 0x00, 0x00, 0x00, 0x1c, 0x00, 0x00, 0x00,
  0x1c, 0x00, 0x00, 0x00, 0x09, 0x00, 0x00, 0x00, 0x70, 0x00, 0x00, 0x00,
  0x02, 0x00, 0x00, 0x00, 0xff, 0xff, 0xff, 0xff, 0x0a, 0x00, 0x00, 0x00,
  0xe8, 0xfc, 0xff, 0xff, 0x55, 0x00, 0x00, 0x00, 0x73, 0x65, 0x71, 0x75,
  0x65, 0x6e, 0x74, 0x69, 0x61, 0x6c, 0x5f, 0x34, 0x2f, 0x64, 0x65, 0x6e,
  0x73, 0x65, 0x5f, 0x31, 0x33, 0x2f, 0x4d, 0x61, 0x74, 0x4d, 0x75, 0x6c,
  0x3b, 0x73, 0x65, 0x71, 0x75, 0x65, 0x6e, 0x74, 0x69, 0x61, 0x6c, 0x5f,
  0x34, 0x2f, 0x64, 0x65, 0x6e, 0x73, 0x65, 0x5f, 0x31, 0x33, 0x2f, 0x52,
  0x65, 0x6c, 0x75, 0x3b, 0x73, 0x65, 0x71, 0x75, 0x65, 0x6e, 0x74, 0x69,
  0x61, 0x6c, 0x5f, 0x34, 0x2f, 0x64, 0x65, 0x6e, 0x73, 0x65, 0x5f, 0x31,
  0x33, 0x2f, 0x42, 0x69, 0x61, 0x73, 0x41, 0x64, 0x64, 0x00, 0x00, 0x00,
  0x02, 0x00, 0x00, 0x00, 0x01, 0x00, 0x00, 0x00, 0x0a, 0x00, 0x00, 0x00,
  0x8c, 0xfd, 0xff, 0xff, 0x14, 0x00, 0x00, 0x00, 0x1c, 0x00, 0x00, 0x00,
  0x1c, 0x00, 0x00, 0x00, 0x08, 0x00, 0x00, 0x00, 0x70, 0x00, 0x00, 0x00,
  0x02, 0x00, 0x00, 0x00, 0xff, 0xff, 0xff, 0xff, 0x0a, 0x00, 0x00, 0x00,
  0x78, 0xfd, 0xff, 0xff, 0x55, 0x00, 0x00, 0x00, 0x73, 0x65, 0x71, 0x75,
  0x65, 0x6e, 0x74, 0x69, 0x61, 0x6c, 0x5f, 0x34, 0x2f, 0x64, 0x65, 0x6e,
  0x73, 0x65, 0x5f, 0x31, 0x32, 0x2f, 0x4d, 0x61, 0x74, 0x4d, 0x75, 0x6c,
  0x3b, 0x73, 0x65, 0x71, 0x75, 0x65, 0x6e, 0x74, 0x69, 0x61, 0x6c, 0x5f,
  0x34, 0x2f, 0x64, 0x65, 0x6e, 0x73, 0x65, 0x5f, 0x31, 0x32, 0x2f, 0x52,
  0x65, 0x6c, 0x75, 0x3b, 0x73, 0x65, 0x71, 0x75, 0x65, 0x6e, 0x74, 0x69,
  0x61, 0x6c, 0x5f, 0x34, 0x2f, 0x64, 0x65, 0x6e, 0x73, 0x65, 0x5f, 0x31,
  0x32, 0x2f, 0x42, 0x69, 0x61, 0x73, 0x41, 0x64, 0x64, 0x00, 0x00, 0x00,
  0x02, 0x00, 0x00, 0x00, 0x01, 0x00, 0x00, 0x00, 0x0a, 0x00, 0x00, 0x00,
  0x7e, 0xfe, 0xff, 0xff, 0x10, 0x00, 0x00, 0x00, 0x10, 0x00, 0x00, 0x00,
  0x07, 0x00, 0x00, 0x00, 0x2c, 0x00, 0x00, 0x00, 0xf8, 0xfd, 0xff, 0xff,
  0x1c, 0x00, 0x00, 0x00, 0x73, 0x65, 0x71, 0x75, 0x65, 0x6e, 0x74, 0x69,
  0x61, 0x6c, 0x5f, 0x34, 0x2f, 0x64, 0x65, 0x6e, 0x73, 0x65, 0x5f, 0x31,
  0x34, 0x2f, 0x4d, 0x61, 0x74, 0x4d, 0x75, 0x6c, 0x00, 0x00, 0x00, 0x00,
  0x02, 0x00, 0x00, 0x00, 0x05, 0x00, 0x00, 0x00, 0x0a, 0x00, 0x00, 0x00,
  0xc6, 0xfe, 0xff, 0xff, 0x10, 0x00, 0x00, 0x00, 0x10, 0x00, 0x00, 0x00,
  0x06, 0x00, 0x00, 0x00, 0x2c, 0x00, 0x00, 0x00, 0x40, 0xfe, 0xff, 0xff,
  0x1c, 0x00, 0x00, 0x00, 0x73, 0x65, 0x71, 0x75, 0x65, 0x6e, 0x74, 0x69,
  0x61, 0x6c, 0x5f, 0x34, 0x2f, 0x64, 0x65, 0x6e, 0x73, 0x65, 0x5f, 0x31,
  0x33, 0x2f, 0x4d, 0x61, 0x74, 0x4d, 0x75, 0x6c, 0x00, 0x00, 0x00, 0x00,
  0x02, 0x00, 0x00, 0x00, 0x0a, 0x00, 0x00, 0x00, 0x0a, 0x00, 0x00, 0x00,
  0x0e, 0xff, 0xff, 0xff, 0x10, 0x00, 0x00, 0x00, 0x10, 0x00, 0x00, 0x00,
  0x05, 0x00, 0x00, 0x00, 0x2c, 0x00, 0x00, 0x00, 0x88, 0xfe, 0xff, 0xff,
  0x1c, 0x00, 0x00, 0x00, 0x73, 0x65, 0x71, 0x75, 0x65, 0x6e, 0x74, 0x69,
  0x61, 0x6c, 0x5f, 0x34, 0x2f, 0x64, 0x65, 0x6e, 0x73, 0x65, 0x5f, 0x31,
  0x32, 0x2f, 0x4d, 0x61, 0x74, 0x4d, 0x75, 0x6c, 0x00, 0x00, 0x00, 0x00,
  0x02, 0x00, 0x00, 0x00, 0x0a, 0x00, 0x00, 0x00, 0x7e, 0x00, 0x00, 0x00,
  0x56, 0xff, 0xff, 0xff, 0x10, 0x00, 0x00, 0x00, 0x10, 0x00, 0x00, 0x00,
  0x04, 0x00, 0x00, 0x00, 0x3c, 0x00, 0x00, 0x00, 0xd0, 0xfe, 0xff, 0xff,
  0x2c, 0x00, 0x00, 0x00, 0x73, 0x65, 0x71, 0x75, 0x65, 0x6e, 0x74, 0x69,
  0x61, 0x6c, 0x5f, 0x34, 0x2f, 0x64, 0x65, 0x6e, 0x73, 0x65, 0x5f, 0x31,
  0x32, 0x2f, 0x42, 0x69, 0x61, 0x73, 0x41, 0x64, 0x64, 0x2f, 0x52, 0x65,
  0x61, 0x64, 0x56, 0x61, 0x72, 0x69, 0x61, 0x62, 0x6c, 0x65, 0x4f, 0x70,
  0x00, 0x00, 0x00, 0x00, 0x01, 0x00, 0x00, 0x00, 0x0a, 0x00, 0x00, 0x00,
  0xaa, 0xff, 0xff, 0xff, 0x10, 0x00, 0x00, 0x00, 0x10, 0x00, 0x00, 0x00,
  0x03, 0x00, 0x00, 0x00, 0x3c, 0x00, 0x00, 0x00, 0x24, 0xff, 0xff, 0xff,
  0x2c, 0x00, 0x00, 0x00, 0x73, 0x65, 0x71, 0x75, 0x65, 0x6e, 0x74, 0x69,
  0x61, 0x6c, 0x5f, 0x34, 0x2f, 0x64, 0x65, 0x6e, 0x73, 0x65, 0x5f, 0x31,
  0x33, 0x2f, 0x42, 0x69, 0x61, 0x73, 0x41, 0x64, 0x64, 0x2f, 0x52, 0x65,
  0x61, 0x64, 0x56, 0x61, 0x72, 0x69, 0x61, 0x62, 0x6c, 0x65, 0x4f, 0x70,
  0x00, 0x00, 0x00, 0x00, 0x01, 0x00, 0x00, 0x00, 0x0a, 0x00, 0x00, 0x00,
  0x00, 0x00, 0x0e, 0x00, 0x14, 0x00, 0x10, 0x00, 0x00, 0x00, 0x0c, 0x00,
  0x08, 0x00, 0x04, 0x00, 0x0e, 0x00, 0x00, 0x00, 0x10, 0x00, 0x00, 0x00,
  0x10, 0x00, 0x00, 0x00, 0x02, 0x00, 0x00, 0x00, 0x3c, 0x00, 0x00, 0x00,
  0x88, 0xff, 0xff, 0xff, 0x2c, 0x00, 0x00, 0x00, 0x73, 0x65, 0x71, 0x75,
  0x65, 0x6e, 0x74, 0x69, 0x61, 0x6c, 0x5f, 0x34, 0x2f, 0x64, 0x65, 0x6e,
  0x73, 0x65, 0x5f, 0x31, 0x34, 0x2f, 0x42, 0x69, 0x61, 0x73, 0x41, 0x64,
  0x64, 0x2f, 0x52, 0x65, 0x61, 0x64, 0x56, 0x61, 0x72, 0x69, 0x61, 0x62,
  0x6c, 0x65, 0x4f, 0x70, 0x00, 0x00, 0x00, 0x00, 0x01, 0x00, 0x00, 0x00,
  0x05, 0x00, 0x00, 0x00, 0x14, 0x00, 0x18, 0x00, 0x14, 0x00, 0x00, 0x00,
  0x10, 0x00, 0x0c, 0x00, 0x08, 0x00, 0x00, 0x00, 0x00, 0x00, 0x04, 0x00,
  0x14, 0x00, 0x00, 0x00, 0x14, 0x00, 0x00, 0x00, 0x20, 0x00, 0x00, 0x00,
  0x20, 0x00, 0x00, 0x00, 0x01, 0x00, 0x00, 0x00, 0x40, 0x00, 0x00, 0x00,
  0x02, 0x00, 0x00, 0x00, 0xff, 0xff, 0xff, 0xff, 0x7e, 0x00, 0x00, 0x00,
  0x04, 0x00, 0x04, 0x00, 0x04, 0x00, 0x00, 0x00, 0x20, 0x00, 0x00, 0x00,
  0x73, 0x65, 0x72, 0x76, 0x69, 0x6e, 0x67, 0x5f, 0x64, 0x65, 0x66, 0x61,
  0x75, 0x6c, 0x74, 0x5f, 0x64, 0x65, 0x6e, 0x73, 0x65, 0x5f, 0x31, 0x32,
  0x5f, 0x69, 0x6e, 0x70, 0x75, 0x74, 0x3a, 0x30, 0x00, 0x00, 0x00, 0x00,
  0x02, 0x00, 0x00, 0x00, 0x01, 0x00, 0x00, 0x00, 0x7e, 0x00, 0x00, 0x00,
  0x02, 0x00, 0x00, 0x00, 0x20, 0x00, 0x00, 0x00, 0x04, 0x00, 0x00, 0x00,
  0xf4, 0xff, 0xff, 0xff, 0x19, 0x00, 0x00, 0x00, 0x00, 0x00, 0x00, 0x19,
  0x0c, 0x00, 0x0c, 0x00, 0x0b, 0x00, 0x00, 0x00, 0x00, 0x00, 0x04, 0x00,
  0x0c, 0x00, 0x00, 0x00, 0x09, 0x00, 0x00, 0x00, 0x00, 0x00, 0x00, 0x09
};
