const unsigned char model[] = {
  0x1c, 0x00, 0x00, 0x00, 0x54, 0x46, 0x4c, 0x33, 0x14, 0x00, 0x20, 0x00,
  0x1c, 0x00, 0x18, 0x00, 0x14, 0x00, 0x10, 0x00, 0x0c, 0x00, 0x00, 0x00,
  0x08, 0x00, 0x04, 0x00, 0x14, 0x00, 0x00, 0x00, 0x1c, 0x00, 0x00, 0x00,
  0x98, 0x00, 0x00, 0x00, 0xc8, 0x00, 0x00, 0x00, 0x70, 0x16, 0x00, 0x00,
  0x80, 0x16, 0x00, 0x00, 0xf0, 0x1b, 0x00, 0x00, 0x03, 0x00, 0x00, 0x00,
  0x01, 0x00, 0x00, 0x00, 0x10, 0x00, 0x00, 0x00, 0x00, 0x00, 0x0a, 0x00,
  0x10, 0x00, 0x0c, 0x00, 0x08, 0x00, 0x04, 0x00, 0x0a, 0x00, 0x00, 0x00,
  0x0c, 0x00, 0x00, 0x00, 0x1c, 0x00, 0x00, 0x00, 0x3c, 0x00, 0x00, 0x00,
  0x0f, 0x00, 0x00, 0x00, 0x73, 0x65, 0x72, 0x76, 0x69, 0x6e, 0x67, 0x5f,
  0x64, 0x65, 0x66, 0x61, 0x75, 0x6c, 0x74, 0x00, 0x01, 0x00, 0x00, 0x00,
  0x04, 0x00, 0x00, 0x00, 0xb8, 0xff, 0xff, 0xff, 0x0a, 0x00, 0x00, 0x00,
  0x04, 0x00, 0x00, 0x00, 0x08, 0x00, 0x00, 0x00, 0x64, 0x65, 0x6e, 0x73,
  0x65, 0x5f, 0x33, 0x32, 0x00, 0x00, 0x00, 0x00, 0x01, 0x00, 0x00, 0x00,
  0x04, 0x00, 0x00, 0x00, 0x76, 0xe9, 0xff, 0xff, 0x04, 0x00, 0x00, 0x00,
  0x0e, 0x00, 0x00, 0x00, 0x64, 0x65, 0x6e, 0x73, 0x65, 0x5f, 0x33, 0x30,
  0x5f, 0x69, 0x6e, 0x70, 0x75, 0x74, 0x00, 0x00, 0x01, 0x00, 0x00, 0x00,
  0x0c, 0x00, 0x00, 0x00, 0x08, 0x00, 0x0c, 0x00, 0x08, 0x00, 0x04, 0x00,
  0x08, 0x00, 0x00, 0x00, 0x0c, 0x00, 0x00, 0x00, 0x04, 0x00, 0x00, 0x00,
  0x13, 0x00, 0x00, 0x00, 0x6d, 0x69, 0x6e, 0x5f, 0x72, 0x75, 0x6e, 0x74,
  0x69, 0x6d, 0x65, 0x5f, 0x76, 0x65, 0x72, 0x73, 0x69, 0x6f, 0x6e, 0x00,
  0x0d, 0x00, 0x00, 0x00, 0xa4, 0x15, 0x00, 0x00, 0x9c, 0x15, 0x00, 0x00,
  0x84, 0x15, 0x00, 0x00, 0x4c, 0x15, 0x00, 0x00, 0x14, 0x15, 0x00, 0x00,
  0x44, 0x02, 0x00, 0x00, 0xa4, 0x00, 0x00, 0x00, 0x44, 0x00, 0x00, 0x00,
  0x3c, 0x00, 0x00, 0x00, 0x34, 0x00, 0x00, 0x00, 0x2c, 0x00, 0x00, 0x00,
  0x24, 0x00, 0x00, 0x00, 0x04, 0x00, 0x00, 0x00, 0xfe, 0xe9, 0xff, 0xff,
  0x04, 0x00, 0x00, 0x00, 0x10, 0x00, 0x00, 0x00, 0x31, 0x2e, 0x35, 0x2e,
  0x30, 0x00, 0x00, 0x00, 0x00, 0x00, 0x00, 0x00, 0x00, 0x00, 0x00, 0x00,
  0x5c, 0xe5, 0xff, 0xff, 0x60, 0xe5, 0xff, 0xff, 0x64, 0xe5, 0xff, 0xff,
  0x68, 0xe5, 0xff, 0xff, 0x2a, 0xea, 0xff, 0xff, 0x04, 0x00, 0x00, 0x00,
  0x50, 0x00, 0x00, 0x00, 0xfc, 0x4c, 0x84, 0x3e, 0xcc, 0x4a, 0x34, 0xbd,
  0x2d, 0x1b, 0x23, 0xbf, 0xcd, 0xde, 0x30, 0xbf, 0x78, 0x34, 0xf8, 0x3e,
  0x95, 0x0a, 0x75, 0x3f, 0xdf, 0x82, 0x0b, 0xbf, 0xaa, 0x0b, 0xc7, 0x3e,
  0x79, 0x9c, 0xf7, 0x3e, 0x21, 0x55, 0xdd, 0x3e, 0x79, 0x85, 0x68, 0x3e,
  0x1b, 0x58, 0x42, 0x3f, 0xea, 0xfa, 0x2e, 0xbe, 0xbd, 0x22, 0xd0, 0x3d,
  0x6f, 0xa1, 0x1f, 0x3f, 0x91, 0xe8, 0x73, 0x3d, 0xca, 0xb6, 0x4a, 0x3f,
  0x31, 0x27, 0xf1, 0xbe, 0xc9, 0x55, 0xd7, 0x3d, 0x89, 0xd1, 0x2a, 0xbd,
  0x86, 0xea, 0xff, 0xff, 0x04, 0x00, 0x00, 0x00, 0x90, 0x01, 0x00, 0x00,
  0x1e, 0xb6, 0x90, 0xb9, 0x65, 0x40, 0xdc, 0x39, 0x84, 0x4b, 0xed, 0xb8,
  0x54, 0x43, 0x7f, 0xb9, 0x36, 0xb8, 0xb4, 0x38, 0xd8, 0xeb, 0xb4, 0xb9,
  0x3c, 0xf8, 0x7e, 0xb9, 0x40, 0x33, 0xd9, 0x38, 0xd7, 0xa6, 0x16, 0xb8,
  0xcd, 0x89, 0x3a, 0x39, 0x22, 0x4b, 0x84, 0xb8, 0x0c, 0x8e, 0x55, 0x38,
  0xa0, 0xf2, 0xa2, 0x37, 0x52, 0x2a, 0x8d, 0xb9, 0xa2, 0x63, 0x9e, 0xb8,
  0x39, 0x30, 0x94, 0xb8, 0x57, 0x9e, 0x3c, 0x3e, 0xae, 0x56, 0x0b, 0xb8,
  0xab, 0x08, 0x1f, 0xb9, 0xee, 0x18, 0xd1, 0xbe, 0x3b, 0xe3, 0x11, 0x39,
  0x6f, 0x9c, 0xae, 0xb9, 0xab, 0x0f, 0x96, 0xb8, 0x2a, 0xa3, 0xb0, 0xbe,
  0x56, 0xb3, 0xa5, 0xb8, 0xd2, 0xcd, 0x12, 0xb8, 0xf6, 0xf3, 0x70, 0x3e,
  0xa6, 0x80, 0xb3, 0x39, 0xec, 0xb7, 0x0b, 0x39, 0x27, 0x75, 0x15, 0xba,
  0x51, 0xb7, 0xbf, 0x38, 0xce, 0xaf, 0x9b, 0xb8, 0x36, 0x4f, 0x7f, 0x38,
  0xf5, 0xcb, 0xca, 0xbe, 0x74, 0x41, 0x09, 0x39, 0x03, 0xc0, 0x4b, 0x3e,
  0x8d, 0xa8, 0x14, 0x3f, 0x96, 0xbd, 0xf6, 0x39, 0x40, 0x3a, 0xd8, 0x37,
  0xc3, 0xa0, 0x05, 0xbf, 0x2a, 0x9a, 0xad, 0xb8, 0xfa, 0x85, 0x11, 0xb9,
  0xf8, 0x11, 0xbd, 0x38, 0x9e, 0xc5, 0xdc, 0x37, 0xdc, 0x45, 0x24, 0xb9,
  0x3c, 0xd3, 0x96, 0xb9, 0x5e, 0xa3, 0x75, 0xb8, 0xa7, 0x56, 0x15, 0xb9,
  0xf8, 0x1a, 0xd0, 0xb8, 0xe7, 0xf9, 0x42, 0xb9, 0x08, 0x09, 0x5e, 0x39,
  0x48, 0xb9, 0x1c, 0x39, 0xc2, 0x91, 0x18, 0x39, 0x7e, 0x16, 0xbe, 0x3e,
  0xb3, 0x21, 0x79, 0xb8, 0x32, 0x52, 0xf8, 0xb9, 0xda, 0x17, 0x18, 0xb9,
  0xae, 0x71, 0xf5, 0x38, 0xc0, 0x40, 0xbd, 0x36, 0x36, 0xe2, 0x0c, 0x3f,
  0xde, 0x76, 0x01, 0xb9, 0x60, 0x3d, 0x0f, 0x36, 0x4c, 0xa6, 0xaa, 0xb8,
  0x84, 0x64, 0x8f, 0xbe, 0xc2, 0xc2, 0x09, 0xb9, 0x9f, 0xcc, 0x90, 0x3d,
  0xf2, 0x01, 0x4e, 0x3e, 0x08, 0xf4, 0x80, 0x38, 0x25, 0x1d, 0x97, 0x38,
  0xfa, 0xdf, 0xf8, 0xbd, 0x82, 0x59, 0x50, 0xb8, 0x46, 0xa4, 0x19, 0xb9,
  0xe8, 0x0c, 0x36, 0x38, 0xc2, 0x99, 0x93, 0x3e, 0xf7, 0x4d, 0x80, 0xb9,
  0xc0, 0x19, 0xbf, 0x38, 0xa8, 0x77, 0xff, 0xb8, 0x42, 0xc1, 0x9a, 0x38,
  0x21, 0xd6, 0x4d, 0xb9, 0x64, 0x3d, 0x15, 0x3f, 0xec, 0xff, 0xa1, 0xb8,
  0x6d, 0xef, 0xa6, 0x39, 0x9c, 0x73, 0x40, 0x39, 0x8d, 0x09, 0x1c, 0x3f,
  0xc0, 0xaa, 0x40, 0xb8, 0x80, 0xdf, 0x14, 0x35, 0x0d, 0x1d, 0x29, 0x3e,
  0xcf, 0x90, 0x7d, 0x39, 0x0f, 0x31, 0x7d, 0x38, 0xe2, 0xbf, 0x6a, 0x39,
  0xfc, 0xa1, 0x98, 0x36, 0x87, 0x76, 0x70, 0xb8, 0xbc, 0xc1, 0xc1, 0x37,
  0x1e, 0x90, 0x6d, 0xb8, 0x40, 0x42, 0xeb, 0x39, 0xe2, 0x5b, 0x2c, 0x39,
  0xf8, 0x9c, 0x71, 0x36, 0x6f, 0x9c, 0xba, 0xb8, 0x66, 0x79, 0x80, 0xb9,
  0x08, 0xca, 0x39, 0x39, 0x22, 0xec, 0xff, 0xff, 0x04, 0x00, 0x00, 0x00,
  0xc0, 0x12, 0x00, 0x00, 0x9e, 0x90, 0x52, 0xbc, 0x38, 0x46, 0x0c, 0x3d,
  0x23, 0x48, 0xe9, 0x3c, 0xd3, 0x96, 0x2f, 0x3e, 0x4e, 0xb7, 0xb2, 0x3c,
  0x6f, 0xd3, 0x65, 0xbd, 0x2a, 0xcd, 0x42, 0x3e, 0x4f, 0xe8, 0x9d, 0x3d,
  0x4c, 0xa9, 0x7d, 0xbd, 0x7b, 0x29, 0xd0, 0x3c, 0x83, 0x27, 0x47, 0x3d,
  0xea, 0x88, 0x03, 0xbe, 0xad, 0x7f, 0x48, 0x3e, 0x0e, 0x2e, 0x8b, 0xbd,
  0x77, 0x0a, 0x4d, 0xbe, 0xdc, 0xd0, 0x4d, 0xbe, 0xa9, 0xbe, 0x31, 0x3d,
  0xb6, 0x7b, 0xde, 0x3d, 0x45, 0xc4, 0xee, 0x3d, 0x72, 0xf3, 0x33, 0xbe,
  0x55, 0x63, 0x89, 0x3d, 0xd8, 0xde, 0x0f, 0x3e, 0x82, 0x5f, 0xd1, 0x3d,
  0xb3, 0xcd, 0x36, 0x3c, 0x15, 0xc7, 0x8e, 0xbd, 0x59, 0x45, 0x3e, 0x3e,
  0xb0, 0x33, 0xb6, 0xbb, 0x05, 0x8d, 0x01, 0xbe, 0x77, 0xbb, 0x14, 0x3d,
  0xcc, 0x7a, 0x2e, 0xbe, 0x02, 0x99, 0xb9, 0xbd, 0x06, 0xe4, 0x3b, 0xbe,
  0xed, 0x91, 0x30, 0xbb, 0x86, 0x76, 0x97, 0x3d, 0xe3, 0x4e, 0x98, 0xbc,
  0xd9, 0x8e, 0xcd, 0xbd, 0x62, 0xc6, 0xe6, 0xbd, 0xbe, 0x2d, 0xa9, 0x3c,
  0xfb, 0x77, 0xc7, 0x3d, 0xb1, 0x91, 0x08, 0x3d, 0x8c, 0xe3, 0x1d, 0x3d,
  0xc9, 0x30, 0x82, 0xbd, 0x16, 0x6d, 0x49, 0xbe, 0x3a, 0xc9, 0x56, 0x3d,
  0x13, 0xdb, 0x83, 0x3c, 0x62, 0x67, 0x35, 0x3e, 0xf8, 0x10, 0x12, 0xbe,
  0xff, 0x1d, 0xf1, 0xbc, 0x17, 0x3b, 0x80, 0x3c, 0x56, 0x7c, 0x98, 0x3d,
  0x92, 0x1c, 0x25, 0xbd, 0x4b, 0x6d, 0x32, 0x3e, 0x59, 0x92, 0xd9, 0xbd,
  0x61, 0x82, 0x85, 0x3d, 0xf9, 0xba, 0x3f, 0xbe, 0xc0, 0x65, 0x63, 0x3d,
  0xd3, 0x82, 0xbd, 0x3d, 0x3f, 0x42, 0x50, 0xbd, 0x09, 0x4c, 0x35, 0x3e,
  0x84, 0xf5, 0x16, 0x3e, 0x68, 0x0b, 0x4c, 0xbe, 0x75, 0x6e, 0xf2, 0xbc,
  0xce, 0x36, 0x27, 0x3e, 0xa5, 0xce, 0xf5, 0x3c, 0x70, 0x8b, 0x9b, 0xbd,
  0xb3, 0xc7, 0xd8, 0x3c, 0xd3, 0x2e, 0x9f, 0x3c, 0x5d, 0x82, 0xee, 0xbd,
  0x2e, 0xba, 0x5b, 0xbe, 0xfc, 0xf1, 0x99, 0x3d, 0xcb, 0x8d, 0xef, 0x3d,
  0x12, 0xb6, 0xdb, 0x3d, 0x0c, 0x29, 0xe8, 0x3d, 0xc9, 0x21, 0x6c, 0xbd,
  0xa2, 0x2c, 0x55, 0xbe, 0x62, 0x98, 0x0a, 0xbe, 0xf4, 0x8f, 0xcd, 0xbd,
  0xa3, 0x16, 0xf8, 0x3d, 0xd9, 0x49, 0x3b, 0xbc, 0x2f, 0xcb, 0xce, 0x3d,
  0xb4, 0x3c, 0xec, 0x3d, 0xd1, 0x88, 0x8e, 0xbd, 0xe0, 0xc5, 0x1f, 0x3e,
  0x29, 0x25, 0x2a, 0xbe, 0x04, 0xa0, 0x22, 0xbd, 0xf7, 0x36, 0x42, 0xbe,
  0x36, 0x04, 0xaf, 0x3c, 0x30, 0x74, 0xf6, 0x3d, 0x1e, 0x44, 0x06, 0x3e,
  0x15, 0xc5, 0xaa, 0xbd, 0x99, 0xfe, 0x49, 0x3e, 0x7c, 0x83, 0x0c, 0x3e,
  0xec, 0x23, 0x48, 0xbe, 0xd2, 0x57, 0xfb, 0x3c, 0x14, 0x99, 0xa4, 0xbc,
  0xc5, 0xed, 0xce, 0xbd, 0xf2, 0x75, 0xff, 0xbd, 0x85, 0xd1, 0xec, 0x3d,
  0xe9, 0x70, 0x50, 0x3e, 0x09, 0xa6, 0x18, 0x3e, 0x6e, 0xad, 0x4c, 0xbe,
  0x3e, 0xad, 0xb9, 0xbb, 0x90, 0x2a, 0xef, 0xbd, 0x41, 0x66, 0x44, 0xbe,
  0xa4, 0xfd, 0xa4, 0x3d, 0xf6, 0xf8, 0x4d, 0xbe, 0x07, 0x11, 0x54, 0xbe,
  0x74, 0x6e, 0xd5, 0x3c, 0xb0, 0x25, 0x2e, 0x3d, 0x75, 0x1d, 0x02, 0xbe,
  0xbf, 0xac, 0x0d, 0xbd, 0xed, 0xd7, 0xef, 0x3d, 0x6c, 0xd6, 0x46, 0x3e,
  0x1d, 0xa6, 0x26, 0xbe, 0xfc, 0x0c, 0x4d, 0x3d, 0x3f, 0x67, 0xcb, 0xbd,
  0xf0, 0x7a, 0x41, 0xbe, 0xae, 0x81, 0x2f, 0x3d, 0x9c, 0x5b, 0x1f, 0xbd,
  0xda, 0x98, 0x0d, 0xbe, 0x4c, 0xec, 0x52, 0x3b, 0x4d, 0x8a, 0x1c, 0xbd,
  0xe0, 0xf8, 0x40, 0x3e, 0xf5, 0x30, 0xb6, 0x3d, 0x9b, 0x1c, 0x36, 0xbe,
  0x70, 0xb1, 0x2a, 0xbd, 0xbb, 0x76, 0x27, 0x3e, 0x43, 0xb9, 0x1f, 0x3d,
  0x44, 0xe7, 0x0e, 0x3e, 0x9d, 0x0e, 0x28, 0x3e, 0x92, 0x75, 0x03, 0x3e,
  0x8b, 0x39, 0x82, 0xbd, 0xa2, 0x42, 0x6b, 0xbe, 0x44, 0xf4, 0xf7, 0xbd,
  0x4d, 0x6a, 0x0b, 0xbe, 0xf2, 0x9b, 0xe6, 0x3c, 0x12, 0x25, 0xd2, 0xbd,
  0x0f, 0x85, 0x1f, 0x3e, 0xc7, 0xa4, 0x2b, 0xbe, 0x8b, 0x77, 0xed, 0x3b,
  0xf6, 0x78, 0x16, 0xbe, 0xf6, 0x65, 0x8b, 0x3d, 0xa4, 0x98, 0x29, 0xbe,
  0xb6, 0xc9, 0xb8, 0xbd, 0x06, 0xf7, 0x6d, 0x3d, 0x55, 0xa5, 0x5f, 0xbe,
  0x3a, 0x23, 0x3f, 0x3e, 0xcc, 0xc2, 0x0a, 0xbe, 0xce, 0x19, 0x8a, 0xbd,
  0x75, 0xbf, 0x39, 0xbe, 0x87, 0xc9, 0xcd, 0x3d, 0xaf, 0xf0, 0x27, 0x3c,
  0x7c, 0x15, 0x2a, 0x3d, 0x0e, 0x9f, 0x3d, 0xbe, 0xf2, 0x27, 0xa6, 0xbd,
  0x5b, 0xa8, 0xed, 0x3b, 0x35, 0x6a, 0x37, 0x3e, 0x03, 0x49, 0x3a, 0x3e,
  0xf7, 0xe3, 0x1f, 0xbe, 0x2a, 0x7f, 0x14, 0x3d, 0xe3, 0xa6, 0x8b, 0x3d,
  0x20, 0x6f, 0xc4, 0x3c, 0x89, 0x52, 0x13, 0xbe, 0xbe, 0xef, 0xc8, 0x3d,
  0x92, 0x23, 0x01, 0xbe, 0x6c, 0xb8, 0x1a, 0xbe, 0x74, 0x13, 0x59, 0xbe,
  0x1c, 0xa3, 0xc2, 0x3d, 0xee, 0x2b, 0x85, 0x3b, 0x4d, 0x1e, 0x46, 0xbe,
  0x10, 0xc1, 0xae, 0x3d, 0x15, 0x4e, 0x23, 0xbe, 0x46, 0x83, 0xad, 0x3d,
  0xb3, 0x26, 0x58, 0xbe, 0x7c, 0xce, 0x1b, 0xbd, 0x48, 0x3f, 0xfa, 0x3b,
  0x4e, 0x4f, 0x54, 0xbe, 0x17, 0x6f, 0x32, 0x3e, 0x8b, 0xda, 0x31, 0x3c,
  0xec, 0x20, 0xd1, 0xbd, 0xef, 0xa6, 0x22, 0x3d, 0x51, 0x25, 0xc8, 0x3b,
  0x6d, 0x52, 0x02, 0xbe, 0x58, 0x86, 0xfd, 0xbd, 0x08, 0x93, 0xc2, 0xbc,
  0x38, 0xb8, 0x46, 0x3e, 0xe9, 0x31, 0x85, 0x3b, 0x0d, 0xb8, 0xcf, 0xbd,
  0x66, 0xb8, 0x2e, 0xbe, 0xdb, 0x1f, 0x5b, 0xbe, 0xa6, 0x67, 0xf4, 0xbd,
  0xdb, 0x34, 0x29, 0x3d, 0x25, 0xfa, 0x8f, 0x3d, 0xe8, 0x64, 0x32, 0xbc,
  0x4f, 0x11, 0xf3, 0xbb, 0xdb, 0x7c, 0x06, 0x3e, 0x68, 0x3a, 0x47, 0x3e,
  0x13, 0xe7, 0x4b, 0xbe, 0xa5, 0xcd, 0x22, 0xbe, 0x90, 0xb5, 0x22, 0x3e,
  0x10, 0x69, 0x32, 0x3e, 0xec, 0x64, 0x17, 0xbe, 0xef, 0xe8, 0xe4, 0x3d,
  0xd4, 0x1f, 0x49, 0x3e, 0x3e, 0x13, 0x15, 0xbd, 0x71, 0x70, 0xd7, 0xbd,
  0xc7, 0xae, 0x0b, 0x3e, 0xa0, 0x0e, 0x08, 0x3e, 0xef, 0xe7, 0x16, 0x3c,
  0xfd, 0xe3, 0x35, 0x3c, 0x69, 0x99, 0x8a, 0xba, 0x75, 0x71, 0xab, 0x3d,
  0xf6, 0x5b, 0xef, 0x3d, 0xa7, 0xf9, 0x01, 0x3e, 0xa1, 0x2a, 0x50, 0x3d,
  0x28, 0x22, 0x3a, 0x3e, 0x9a, 0xf1, 0x0e, 0xbe, 0x9d, 0x0a, 0x6a, 0xbd,
  0xe7, 0xc7, 0x28, 0xbe, 0xd4, 0x6a, 0x0f, 0xbd, 0x61, 0xec, 0x0f, 0xbd,
  0x86, 0xcf, 0xeb, 0x3d, 0x09, 0x1f, 0xcb, 0xbc, 0xf6, 0x16, 0xbd, 0xbd,
  0xb3, 0xce, 0x20, 0x3e, 0x37, 0x2f, 0x3a, 0xbe, 0x92, 0x64, 0x2d, 0xbe,
  0xdb, 0xa5, 0x1f, 0x3e, 0x96, 0xef, 0x62, 0xbe, 0xf9, 0xf1, 0xbb, 0x3d,
  0x20, 0x78, 0xe3, 0xbd, 0xd7, 0x6f, 0x47, 0x3e, 0x46, 0xcd, 0xb0, 0xbb,
  0xdb, 0x46, 0x2b, 0x3e, 0x40, 0xb9, 0xb2, 0xbd, 0x4e, 0x44, 0xc1, 0x3c,
  0xa9, 0x05, 0x7c, 0xbd, 0xde, 0x21, 0x2b, 0x3e, 0xe4, 0xf6, 0x0e, 0xbe,
  0x8f, 0x3c, 0x89, 0xbd, 0xfa, 0xd0, 0xf8, 0x3d, 0x57, 0x01, 0xc9, 0xbd,
  0x7b, 0x57, 0x4a, 0x3e, 0x65, 0xd6, 0x46, 0xbe, 0x42, 0x4d, 0x18, 0xbe,
  0x3c, 0xa5, 0x98, 0xbd, 0xd3, 0xd5, 0x24, 0x3e, 0x53, 0x10, 0x36, 0xbe,
  0x89, 0x98, 0x1a, 0x3e, 0x9e, 0xe7, 0x8a, 0xbd, 0x89, 0x50, 0x44, 0x3e,
  0x60, 0x6b, 0xdf, 0xbb, 0xc7, 0xf4, 0x51, 0x3e, 0x00, 0x76, 0x70, 0xbc,
  0x40, 0xa9, 0xc9, 0x3c, 0x48, 0x70, 0xcb, 0xbc, 0xa9, 0xb3, 0xda, 0xbd,
  0x18, 0x5c, 0x1b, 0xbd, 0x40, 0x5d, 0xe6, 0x3c, 0xf9, 0xe3, 0x10, 0x3e,
  0x06, 0x52, 0x0a, 0xbe, 0x80, 0xc8, 0x00, 0xbc, 0x80, 0xba, 0xc0, 0x3b,
  0xdf, 0xf3, 0xc2, 0xbd, 0x90, 0xb9, 0x76, 0xbc, 0xcc, 0xf1, 0x34, 0xbd,
  0xfe, 0x4f, 0xab, 0x3d, 0x40, 0x52, 0xbb, 0xbd, 0x24, 0x7e, 0x53, 0xbe,
  0x80, 0x9f, 0xdd, 0xbd, 0xce, 0xe0, 0xb2, 0x3d, 0x16, 0x2d, 0xf0, 0xbd,
  0xa7, 0xb5, 0x23, 0xbe, 0x48, 0xc4, 0xac, 0x3c, 0x3a, 0xa6, 0x44, 0xbe,
  0xc6, 0x31, 0x57, 0xbe, 0x8a, 0x87, 0xdb, 0x3d, 0x41, 0x6b, 0x03, 0x3e,
  0xd9, 0x50, 0x32, 0xbe, 0xf4, 0x96, 0x99, 0xbd, 0xb3, 0xab, 0x47, 0xbe,
  0xa4, 0xd6, 0xed, 0xbd, 0x96, 0xfe, 0x01, 0xbe, 0x00, 0x93, 0xb0, 0x3c,
  0x5f, 0xf4, 0x1c, 0x3e, 0x2d, 0xa5, 0x4e, 0xbe, 0x0b, 0x6a, 0x5b, 0x3e,
  0x87, 0x4f, 0xd1, 0xbd, 0x58, 0x7b, 0x92, 0x3c, 0x86, 0xdc, 0xfd, 0x3d,
  0x15, 0x8e, 0x5b, 0xbe, 0xe9, 0x0d, 0x11, 0xbe, 0xb5, 0x85, 0x3d, 0x3e,
  0xc0, 0xa5, 0xaf, 0x3b, 0x10, 0x34, 0x45, 0xbd, 0x00, 0x09, 0xd1, 0x3c,
  0x5c, 0xb5, 0x5e, 0x3d, 0x76, 0x40, 0x85, 0xbd, 0x60, 0x7e, 0x2c, 0xbc,
  0xe4, 0x7b, 0x83, 0xbd, 0x72, 0x1c, 0x35, 0xbe, 0x36, 0xb8, 0x92, 0xbd,
  0x4e, 0x4d, 0x9f, 0x3d, 0xf8, 0x80, 0x6a, 0xbd, 0xea, 0x7f, 0xb1, 0x3d,
  0xd4, 0xf8, 0x0a, 0xbe, 0xff, 0xb7, 0x46, 0x3e, 0x35, 0x4b, 0x3f, 0xbe,
  0x6e, 0x73, 0xe8, 0x3d, 0x26, 0xe9, 0xd8, 0x3d, 0x18, 0x67, 0xfd, 0xbc,
  0x30, 0x0f, 0x76, 0xbc, 0x25, 0x88, 0x2f, 0x3e, 0xac, 0x71, 0x70, 0xbd,
  0xba, 0xd2, 0x2b, 0xbe, 0x02, 0x40, 0x87, 0x3d, 0x00, 0xc4, 0xfe, 0x3c,
  0x7b, 0xa1, 0x53, 0x3e, 0xda, 0xd0, 0xd9, 0x3d, 0xa0, 0xa3, 0xc7, 0xbc,
  0xde, 0x78, 0x8a, 0x3d, 0xe2, 0x31, 0x19, 0xbe, 0x2d, 0x75, 0x56, 0x3e,
  0xc3, 0xa2, 0x35, 0x3e, 0x91, 0x5d, 0x08, 0xbe, 0x2b, 0xc9, 0x32, 0x3e,
  0x70, 0x9a, 0x14, 0xbc, 0x0a, 0xf2, 0xcb, 0x3d, 0xe5, 0x36, 0x59, 0xbe,
  0x7a, 0x7d, 0xde, 0xbd, 0xa4, 0x4d, 0x19, 0xbe, 0xba, 0x3f, 0xe7, 0x3d,
  0x3e, 0x2e, 0xbd, 0xbd, 0xa6, 0x5a, 0x9f, 0xbd, 0xd0, 0x80, 0x69, 0xbc,
  0xd8, 0xa2, 0x0b, 0xbd, 0x1a, 0x1d, 0x94, 0xbd, 0x1d, 0xd6, 0x2e, 0x3e,
  0x06, 0x35, 0xc4, 0xbd, 0x5a, 0x01, 0x93, 0x3d, 0x9e, 0xb1, 0xa5, 0xbd,
  0x88, 0xdc, 0x0b, 0x3d, 0xc4, 0xab, 0x59, 0xbe, 0x50, 0xff, 0x0b, 0x3c,
  0x2e, 0xaa, 0xc0, 0x3d, 0xa7, 0xc5, 0x40, 0xbe, 0x76, 0x05, 0xb9, 0x3d,
  0xdc, 0xb5, 0x3f, 0xbe, 0x40, 0xcb, 0x35, 0x3b, 0xd9, 0x18, 0x08, 0xbe,
  0x47, 0x0f, 0x38, 0x3e, 0x37, 0x7a, 0x24, 0x3e, 0x00, 0xbd, 0xd7, 0xbd,
  0x5c, 0xcf, 0x4a, 0x3d, 0xc5, 0x09, 0x0e, 0x3e, 0x40, 0x62, 0xcd, 0xbc,
  0x04, 0x97, 0x46, 0x3d, 0x64, 0xf2, 0x57, 0x3d, 0x02, 0xb7, 0xd3, 0x3d,
  0x38, 0x93, 0xa7, 0xbd, 0x32, 0xf7, 0xc6, 0x3e, 0xb8, 0x4d, 0x02, 0x3c,
  0xf4, 0xbd, 0x48, 0x3d, 0xa8, 0x17, 0x82, 0x3e, 0x06, 0x6b, 0x2b, 0x3e,
  0x4c, 0x5b, 0x4d, 0x3d, 0x54, 0xc2, 0x8b, 0xbd, 0x18, 0x2a, 0x2d, 0x3e,
  0x6c, 0x63, 0x67, 0x3a, 0xb1, 0xe6, 0x8e, 0xbc, 0xde, 0x1e, 0x56, 0x3e,
  0xec, 0x6f, 0xf7, 0x3d, 0x55, 0xde, 0x22, 0x3d, 0x83, 0x7d, 0x3c, 0x3e,
  0x7f, 0x8f, 0x58, 0xbc, 0x9e, 0x9c, 0x9f, 0x3e, 0x8e, 0xca, 0x67, 0xbd,
  0x7d, 0x36, 0x4b, 0xbe, 0xc4, 0x43, 0xe7, 0x3e, 0x7a, 0xb3, 0x77, 0xbe,
  0x19, 0x5f, 0x94, 0xbd, 0xc0, 0xeb, 0x7f, 0x3e, 0x26, 0xde, 0x98, 0xb8,
  0xe1, 0x0b, 0x33, 0xbe, 0x0e, 0xdd, 0xa3, 0x3e, 0x06, 0xeb, 0x63, 0xbe,
  0x51, 0xe4, 0xbe, 0x3d, 0x84, 0x19, 0xce, 0x3d, 0xdf, 0x2a, 0x5e, 0xbd,
  0x27, 0x00, 0x28, 0xbe, 0x91, 0xbe, 0x25, 0x3e, 0xfb, 0x6d, 0x9d, 0xbe,
  0x8d, 0x37, 0x99, 0x3d, 0x59, 0x95, 0x10, 0x3e, 0x96, 0xbd, 0x31, 0xbe,
  0x68, 0x90, 0x04, 0x3e, 0xa3, 0xe4, 0xfb, 0x3d, 0x11, 0x6f, 0x7e, 0x3d,
  0x9d, 0xa8, 0xa5, 0x3d, 0x28, 0xbe, 0x3a, 0xbe, 0x2a, 0xd4, 0x36, 0xbe,
  0x03, 0x14, 0x4d, 0x3e, 0x39, 0xc4, 0x81, 0xbd, 0xe1, 0x8f, 0xdc, 0x3d,
  0xca, 0x5d, 0x91, 0x3e, 0x20, 0xcd, 0x2d, 0xbe, 0xd1, 0xf5, 0x76, 0x3d,
  0xbd, 0x9e, 0x7b, 0x3e, 0x84, 0x07, 0xc4, 0xbe, 0xac, 0xa2, 0x44, 0xbe,
  0x54, 0xc3, 0xab, 0x3d, 0xbe, 0xbe, 0xa3, 0xbe, 0xbc, 0x22, 0x6c, 0xbe,
  0x10, 0x9d, 0x52, 0x3e, 0x67, 0xfd, 0x9e, 0xbe, 0xf3, 0xcc, 0x4c, 0xbd,
  0xd1, 0xd9, 0x01, 0x3e, 0xfd, 0x52, 0xc2, 0x3c, 0x58, 0x9f, 0x79, 0x3d,
  0x5d, 0xb0, 0x9e, 0xbd, 0x7f, 0x21, 0x55, 0x3d, 0xf7, 0x69, 0x14, 0x3e,
  0x7d, 0xba, 0x70, 0xbc, 0x12, 0xe0, 0xfd, 0xbc, 0xfc, 0xd3, 0xb0, 0x39,
  0xab, 0x7a, 0x82, 0x3e, 0x4e, 0x40, 0xac, 0xbe, 0x76, 0x4a, 0x63, 0x3e,
  0xfe, 0xec, 0x2c, 0x3e, 0xc0, 0xf6, 0x92, 0xbe, 0x7a, 0x8e, 0x25, 0x3e,
  0x3c, 0xbc, 0x90, 0xbd, 0x0d, 0x1e, 0x94, 0xbe, 0xd5, 0x94, 0xc2, 0x3d,
  0xbf, 0x5f, 0x62, 0x3e, 0x30, 0x74, 0x86, 0xbe, 0xa8, 0xec, 0x0d, 0xbe,
  0x28, 0xea, 0x36, 0xbc, 0x9d, 0xf9, 0x33, 0xbe, 0x4b, 0xfc, 0x47, 0x39,
  0x22, 0xbb, 0x18, 0x3e, 0xfb, 0x6e, 0x85, 0xbe, 0x8f, 0x1d, 0x3a, 0xbd,
  0xe4, 0x5a, 0xc5, 0x3d, 0xe5, 0x61, 0x66, 0xbe, 0x86, 0x6d, 0xb9, 0x3d,
  0x15, 0x29, 0x5e, 0x3e, 0xa1, 0x7c, 0x0a, 0xbe, 0x62, 0x90, 0x27, 0x3e,
  0xdb, 0x76, 0x16, 0x3e, 0x71, 0x55, 0xea, 0xbd, 0xa2, 0x51, 0x8e, 0xbd,
  0xd7, 0xdd, 0x2f, 0x3e, 0x15, 0x9c, 0x46, 0xbe, 0xf6, 0x14, 0x3e, 0x3e,
  0x0e, 0x10, 0x30, 0x3e, 0x33, 0x34, 0x0b, 0xbe, 0x49, 0x49, 0xd2, 0xbd,
  0xcf, 0xbe, 0xca, 0xbd, 0x05, 0x7f, 0x1b, 0xbe, 0x18, 0xf5, 0xda, 0x3d,
  0x2e, 0x95, 0xe3, 0x3c, 0x75, 0x0e, 0x1a, 0xbe, 0x66, 0xe6, 0x1c, 0x3d,
  0x49, 0x3a, 0x08, 0xbe, 0xc8, 0xb5, 0xf4, 0x3d, 0x31, 0xf8, 0x3a, 0xbe,
  0xe0, 0x9f, 0xfa, 0xbd, 0x5c, 0x0b, 0x6b, 0xbe, 0x3a, 0xca, 0x13, 0xbe,
  0x58, 0x39, 0x77, 0x3e, 0xeb, 0xff, 0xcb, 0xbd, 0x57, 0xd6, 0xec, 0xbd,
  0xa1, 0xfe, 0x63, 0x3e, 0x53, 0x8b, 0xf6, 0xbd, 0x1b, 0xf9, 0x87, 0xbb,
  0x6c, 0xca, 0x42, 0x3e, 0x07, 0xb1, 0x97, 0xbc, 0xfe, 0xa6, 0xec, 0x3c,
  0xa1, 0x84, 0x75, 0xbd, 0xf2, 0x69, 0xb0, 0x3d, 0x40, 0xe4, 0x0d, 0x3b,
  0x9a, 0x3d, 0xe2, 0xbd, 0x1c, 0x7c, 0x1d, 0x3d, 0x4a, 0xe5, 0x16, 0xbe,
  0xe4, 0xde, 0x02, 0x3d, 0xc8, 0x80, 0x87, 0xbc, 0x75, 0x3f, 0x25, 0x3e,
  0x3d, 0xad, 0x12, 0xbe, 0xfc, 0xb2, 0x7d, 0x3d, 0xca, 0x50, 0xff, 0x3d,
  0xd4, 0x91, 0x9c, 0xbd, 0x04, 0x91, 0x48, 0x3d, 0x2a, 0xf7, 0x80, 0x3d,
  0x3e, 0xf0, 0x2c, 0xbe, 0xec, 0x09, 0xb7, 0xbd, 0x5a, 0xf6, 0xad, 0x3d,
  0x8c, 0x36, 0xf4, 0xbd, 0xcb, 0x8a, 0x30, 0x3e, 0xc4, 0xe2, 0xdb, 0xbd,
  0x8e, 0x13, 0x9d, 0x3d, 0x47, 0x50, 0x56, 0x3e, 0x62, 0x87, 0xac, 0x3d,
  0xde, 0x62, 0x89, 0x3d, 0xe6, 0xcc, 0x0c, 0xbe, 0x2d, 0xfb, 0xf4, 0xbd,
  0x62, 0x8a, 0x8d, 0x3d, 0x6a, 0x7d, 0xb4, 0x3d, 0xdc, 0x8e, 0x3c, 0xbe,
  0xe5, 0x9e, 0x44, 0x3e, 0x20, 0x8f, 0x3e, 0x3c, 0x40, 0xd1, 0xef, 0x3b,
  0x3f, 0xcc, 0xf9, 0xbd, 0x03, 0x95, 0x23, 0x3e, 0x61, 0xe8, 0xe7, 0xbd,
  0xe0, 0x6c, 0x75, 0xbd, 0xa0, 0xea, 0x86, 0x3c, 0x8c, 0x00, 0x29, 0xbe,
  0xa9, 0xcc, 0xf3, 0xbd, 0x40, 0x61, 0x8a, 0xbc, 0x49, 0x64, 0x18, 0x3e,
  0x44, 0xb5, 0xfc, 0xbd, 0x86, 0xc3, 0xa4, 0xbd, 0xaa, 0x0f, 0xc2, 0xbd,
  0x65, 0xa6, 0x54, 0x3e, 0x6a, 0x39, 0xe5, 0x3d, 0x68, 0xc1, 0xe4, 0xbc,
  0x35, 0xed, 0x51, 0x3e, 0x60, 0xe1, 0x97, 0xbc, 0xf9, 0xb8, 0x57, 0xbe,
  0x72, 0xaa, 0x97, 0xbd, 0xce, 0x65, 0x81, 0x3d, 0xc2, 0xd5, 0x3c, 0xbe,
  0x5e, 0x30, 0xbd, 0x3d, 0xce, 0xbf, 0xa0, 0x3d, 0x00, 0x8c, 0x86, 0x3a,
  0xd0, 0x95, 0x14, 0xbe, 0x5c, 0x33, 0xf8, 0xbd, 0xae, 0x5c, 0x13, 0xbe,
  0x77, 0xd4, 0xba, 0xbd, 0xb8, 0xaf, 0x9e, 0xbd, 0xbe, 0x6c, 0xf5, 0xbd,
  0x3c, 0xce, 0xa0, 0xbd, 0xc0, 0x72, 0x8c, 0x3b, 0x9d, 0x02, 0x56, 0x3e,
  0xd7, 0x09, 0x04, 0x3e, 0x86, 0x72, 0xb9, 0x3d, 0xc5, 0x74, 0x23, 0x3e,
  0x16, 0x42, 0xfd, 0x3d, 0x84, 0x79, 0x06, 0xbe, 0x41, 0x04, 0x1e, 0x3e,
  0x06, 0x0d, 0x56, 0xbe, 0x00, 0x5f, 0xe0, 0xbc, 0xc8, 0x14, 0xed, 0x3c,
  0x00, 0xfc, 0xd2, 0x3b, 0x70, 0xf3, 0x59, 0xbe, 0xe8, 0x47, 0x13, 0xbe,
  0x3e, 0x2c, 0x91, 0x3d, 0xfa, 0x10, 0xd9, 0x3d, 0x30, 0xd7, 0x27, 0xbe,
  0xe2, 0x8e, 0x33, 0xbe, 0x62, 0x5a, 0x91, 0x3d, 0x4d, 0xc5, 0x59, 0x3e,
  0xb4, 0x96, 0xae, 0xbd, 0x10, 0xe2, 0x70, 0x3c, 0xeb, 0xa1, 0x36, 0x3e,
  0x53, 0x8d, 0xb9, 0xbd, 0x34, 0x00, 0x78, 0xbd, 0x3a, 0x54, 0x91, 0xbd,
  0xe8, 0xe5, 0x05, 0x3d, 0x8c, 0x27, 0x43, 0xbd, 0xaa, 0x24, 0xda, 0x3d,
  0xca, 0x8d, 0x57, 0xbe, 0x92, 0xa4, 0xdd, 0x3d, 0xdc, 0xcd, 0x1b, 0x3d,
  0xac, 0x32, 0xd6, 0xbd, 0x00, 0xd8, 0xac, 0x38, 0x8c, 0xc7, 0xaf, 0xbd,
  0x4e, 0x2b, 0x85, 0xbd, 0x50, 0xc1, 0xbc, 0x3c, 0x9d, 0x77, 0x5a, 0xbe,
  0x2b, 0x82, 0x4d, 0xbe, 0xe0, 0x6b, 0x0f, 0x3c, 0x2b, 0xac, 0x5a, 0xbe,
  0xc8, 0x1c, 0xf3, 0x3c, 0x83, 0xae, 0x1e, 0xbe, 0x2b, 0xfd, 0x44, 0xbe,
  0xcb, 0x8d, 0x32, 0x3e, 0x8d, 0x85, 0x34, 0x3e, 0x8b, 0xe1, 0xc8, 0xbd,
  0x35, 0x83, 0xbd, 0xbd, 0xf6, 0x6c, 0xf3, 0x3d, 0x3f, 0x57, 0xc9, 0xbd,
  0x65, 0x87, 0x11, 0x3e, 0x0b, 0x1e, 0x10, 0x3e, 0x4f, 0xb7, 0x51, 0xbe,
  0x96, 0x54, 0xa3, 0xbd, 0x42, 0xdc, 0xb0, 0xbd, 0xdd, 0x16, 0x55, 0x3e,
  0x46, 0xda, 0xf1, 0x3d, 0xfc, 0x60, 0xa0, 0xbe, 0xb4, 0xa6, 0x0c, 0x3e,
  0x13, 0x12, 0xb1, 0xbd, 0x30, 0x29, 0xf1, 0xbd, 0xd0, 0xf7, 0x5f, 0x3e,
  0xef, 0x54, 0x5d, 0x3c, 0x57, 0x73, 0x29, 0x3e, 0x6f, 0xca, 0x06, 0xbe,
  0x36, 0x3e, 0x5e, 0xbe, 0xb1, 0xf9, 0xb8, 0x3c, 0x8f, 0x82, 0x02, 0xbe,
  0x00, 0x7a, 0x2b, 0x3e, 0xb6, 0x6e, 0x14, 0xbd, 0x12, 0xfc, 0x60, 0xbe,
  0xef, 0xaf, 0x28, 0x3e, 0x4d, 0x39, 0xa9, 0x3c, 0x53, 0xc1, 0x61, 0xba,
  0xaa, 0xa0, 0xd3, 0x3d, 0xbe, 0xc5, 0x30, 0xbc, 0x55, 0x6a, 0x20, 0xbd,
  0xe4, 0xc3, 0x0b, 0xbe, 0x98, 0xea, 0xa6, 0xbe, 0x68, 0x01, 0x29, 0xbd,
  0xc7, 0x58, 0xff, 0x3d, 0x83, 0x01, 0x3b, 0x3c, 0xb0, 0xac, 0x72, 0x3c,
  0xc8, 0xe5, 0x06, 0xbe, 0xb4, 0x2f, 0xe9, 0x3d, 0x7c, 0xff, 0xd4, 0xbd,
  0x35, 0x71, 0xc9, 0x3d, 0x6f, 0x38, 0xbb, 0x3d, 0xdf, 0xc4, 0x92, 0x3d,
  0xbd, 0xed, 0x40, 0x3e, 0xf8, 0x8e, 0x17, 0x3e, 0xd5, 0xc0, 0x82, 0x3e,
  0x1c, 0x70, 0x69, 0xbe, 0xf8, 0x53, 0xc1, 0xbd, 0x0a, 0x92, 0x0a, 0x3e,
  0xce, 0x20, 0x2f, 0xbc, 0xfc, 0x81, 0x07, 0xbe, 0x7e, 0x88, 0xc9, 0xbd,
  0xfa, 0xd2, 0x46, 0x3e, 0x2b, 0x43, 0x40, 0x3e, 0x27, 0x5f, 0xc1, 0x3d,
  0xb2, 0x59, 0xce, 0xbc, 0x8c, 0x0b, 0xae, 0x3e, 0xf8, 0x3f, 0x48, 0x3d,
  0x15, 0xb0, 0x9b, 0xbd, 0x15, 0x60, 0x93, 0x3e, 0x19, 0x00, 0xcc, 0x3d,
  0xd8, 0xcc, 0x91, 0xbb, 0x87, 0x14, 0x4a, 0x3e, 0x4f, 0x08, 0xba, 0x3e,
  0x66, 0x5b, 0xa7, 0xbc, 0x1e, 0x01, 0xc2, 0x3e, 0xe2, 0x12, 0xc7, 0xbd,
  0x6f, 0x42, 0x9c, 0xbe, 0xa8, 0x87, 0x76, 0x3c, 0x76, 0x13, 0x55, 0x3e,
  0xa8, 0x65, 0x84, 0xbd, 0xca, 0x0c, 0x39, 0xbd, 0x53, 0x07, 0x28, 0x3e,
  0x9b, 0x66, 0x54, 0xbe, 0x71, 0xd6, 0xa3, 0xbc, 0x64, 0x6b, 0x82, 0xbe,
  0x42, 0x77, 0x1f, 0xbe, 0xd9, 0xef, 0x2c, 0x3e, 0xb4, 0x9b, 0x08, 0xbe,
  0xe7, 0xd7, 0xbe, 0xbd, 0x0f, 0xc8, 0x38, 0x3e, 0x36, 0x27, 0xe5, 0xbb,
  0x0f, 0x1a, 0x66, 0xbe, 0x6b, 0xa8, 0x7d, 0x3d, 0xa6, 0xc1, 0xe3, 0xbd,
  0x5c, 0x0b, 0x99, 0xbc, 0x6f, 0x8b, 0xa2, 0x3e, 0xce, 0x4c, 0x0a, 0x3e,
  0x7b, 0xd2, 0x3e, 0xbd, 0x71, 0x7c, 0x1c, 0x3e, 0x74, 0x7f, 0x11, 0x3e,
  0x5b, 0xd8, 0x42, 0xbe, 0xdc, 0xf6, 0x21, 0x3e, 0x32, 0xbf, 0xff, 0x3d,
  0x17, 0xc5, 0xaa, 0x3d, 0x4c, 0x0a, 0xab, 0x3e, 0x56, 0x9c, 0x8c, 0xbc,
  0xed, 0x15, 0x09, 0x3e, 0xc5, 0xec, 0x0e, 0xbd, 0x07, 0x6b, 0x6f, 0xbd,
  0xa2, 0x62, 0x0b, 0xbd, 0x4a, 0xe9, 0x97, 0x3e, 0xfe, 0xef, 0x0e, 0x3e,
  0x6b, 0x3b, 0x48, 0x3c, 0x2c, 0x3e, 0x3b, 0xbd, 0xa7, 0xb4, 0x4d, 0x3e,
  0x0c, 0x6d, 0x3e, 0xbd, 0xba, 0x95, 0x60, 0xbd, 0xd5, 0xca, 0x0b, 0x3e,
  0x8d, 0x22, 0x58, 0x3d, 0x54, 0xc5, 0x04, 0x3e, 0x8c, 0xff, 0xe8, 0x3b,
  0xe6, 0x4b, 0x12, 0xbe, 0x23, 0xe5, 0x38, 0x3e, 0x22, 0xb5, 0x93, 0x3d,
  0xea, 0xb6, 0x45, 0xbe, 0xf2, 0x52, 0x5b, 0x3d, 0x1e, 0xc2, 0xa2, 0xbd,
  0x1e, 0x22, 0xc4, 0xbd, 0xb5, 0x59, 0xb6, 0x3d, 0x57, 0xc3, 0x0b, 0x3d,
  0x73, 0x3b, 0x03, 0xbe, 0x71, 0x28, 0xa6, 0x3d, 0x1a, 0x4c, 0xc5, 0xbc,
  0xa9, 0x79, 0x83, 0x3b, 0xc2, 0xb8, 0x41, 0x3e, 0x4d, 0xc5, 0xc5, 0xbd,
  0xcd, 0x7a, 0x1c, 0x3e, 0xe4, 0xdf, 0x47, 0x3e, 0xd9, 0x3d, 0x7d, 0xbd,
  0x98, 0xaa, 0xbf, 0x3d, 0xbe, 0x37, 0x26, 0xbe, 0xd2, 0xbd, 0x39, 0x3e,
  0x27, 0xb7, 0x20, 0x3e, 0xc1, 0x48, 0x15, 0xbc, 0x43, 0x69, 0x66, 0x3e,
  0x37, 0xa4, 0x88, 0x3e, 0x4c, 0x20, 0x96, 0x3e, 0x5c, 0x1c, 0x97, 0x3d,
  0x24, 0x3e, 0x37, 0xbd, 0xa2, 0xe1, 0x22, 0x3c, 0x38, 0xb3, 0xdc, 0x3c,
  0x26, 0xb7, 0x73, 0xbc, 0xe2, 0x76, 0xa0, 0x3d, 0xf5, 0x14, 0x80, 0x3d,
  0x2e, 0xfd, 0x1b, 0x3a, 0xed, 0xdb, 0x50, 0xbe, 0x34, 0xeb, 0xc0, 0x3c,
  0x79, 0xb4, 0x3f, 0x3d, 0x6b, 0xc4, 0x15, 0x3d, 0xbe, 0x11, 0x29, 0x3e,
  0x80, 0xb9, 0x18, 0x3e, 0xb1, 0xa8, 0xae, 0xbe, 0x03, 0x6d, 0x3e, 0x3e,
  0xc0, 0x9a, 0x68, 0x3e, 0x25, 0x28, 0xdf, 0xbd, 0xa8, 0xe5, 0x63, 0xbd,
  0x60, 0x77, 0xb9, 0xbc, 0xa4, 0x4f, 0x79, 0x3d, 0xa7, 0x7f, 0x60, 0x3e,
  0x13, 0xa0, 0x0d, 0x3e, 0xc6, 0x43, 0x64, 0x3e, 0xe4, 0xa5, 0x15, 0xbd,
  0x02, 0x25, 0xfe, 0xbd, 0x6f, 0x84, 0xdf, 0x3d, 0x37, 0x6d, 0x6e, 0x3e,
  0xe4, 0x91, 0xa3, 0xbd, 0x8f, 0xc2, 0x22, 0x3e, 0x8c, 0x89, 0x8d, 0xbb,
  0x9f, 0xbb, 0xf3, 0x3c, 0x6d, 0xc0, 0x02, 0x3e, 0xbe, 0x79, 0x88, 0x3e,
  0xae, 0x8e, 0xdb, 0xbd, 0xca, 0x3e, 0xbd, 0x3c, 0x1b, 0x28, 0x41, 0x3e,
  0xf3, 0xe4, 0x4f, 0xbe, 0x75, 0x26, 0xe7, 0x3e, 0x4b, 0xa5, 0x6c, 0x3c,
  0x7f, 0xa8, 0x10, 0x3e, 0xc5, 0xa6, 0x7f, 0x3e, 0x1f, 0xfd, 0xa5, 0x3e,
  0xb2, 0x17, 0xe6, 0x3d, 0x4c, 0x0c, 0xdd, 0x3e, 0x72, 0x40, 0x08, 0x3e,
  0x6e, 0x9f, 0x19, 0xbd, 0x9c, 0x82, 0x2e, 0x3e, 0x4f, 0xdb, 0xeb, 0xbd,
  0x50, 0x68, 0x6b, 0xbe, 0x4a, 0x7b, 0xa9, 0x3d, 0x9c, 0xb7, 0x33, 0x3d,
  0x8c, 0xbb, 0xb5, 0xbd, 0xe8, 0x78, 0x6e, 0x3d, 0x61, 0xde, 0x4c, 0xbd,
  0xd3, 0x3b, 0x44, 0x3d, 0x83, 0x28, 0xce, 0x3c, 0x79, 0xa1, 0x8b, 0x3d,
  0xdd, 0xa2, 0x0e, 0x3e, 0xea, 0x7b, 0xae, 0x3e, 0x17, 0x25, 0x82, 0x3c,
  0x5c, 0x2e, 0x2a, 0x3d, 0xc4, 0xa5, 0x68, 0x3e, 0xb0, 0x82, 0xc0, 0x3d,
  0xbf, 0x6f, 0x31, 0x3e, 0x09, 0x95, 0x41, 0x3e, 0xd0, 0x9e, 0x12, 0xbe,
  0xb0, 0x0c, 0x82, 0x3d, 0x06, 0x13, 0x88, 0x3e, 0xa0, 0x95, 0x33, 0x3d,
  0x3b, 0x3f, 0xe0, 0xbd, 0x58, 0x9b, 0x52, 0x3e, 0x98, 0x42, 0x30, 0x3e,
  0x6b, 0x0a, 0xe3, 0x3c, 0x73, 0x27, 0x3b, 0xbd, 0x87, 0xe5, 0x8a, 0x3d,
  0x04, 0x85, 0x71, 0x3c, 0xe6, 0xda, 0xa5, 0x3e, 0x49, 0x7b, 0x64, 0x3d,
  0xda, 0x11, 0xd2, 0xbd, 0x77, 0x51, 0x0f, 0x3e, 0x75, 0xdc, 0x12, 0x3e,
  0x61, 0x0f, 0x20, 0x3e, 0x2c, 0x06, 0x01, 0x3e, 0xea, 0x4b, 0x09, 0x3e,
  0xa9, 0xd8, 0x8f, 0xbd, 0x5f, 0xaf, 0x75, 0x3b, 0x55, 0xa8, 0xef, 0x3d,
  0xdb, 0x65, 0x7b, 0x3d, 0xd0, 0xa1, 0xeb, 0x3c, 0x7d, 0xe9, 0x89, 0x3e,
  0xca, 0x24, 0x9d, 0x3d, 0x5c, 0xa1, 0x57, 0x3e, 0x77, 0x2d, 0x93, 0xbc,
  0xb8, 0xc8, 0x77, 0xbb, 0x7c, 0xc3, 0xac, 0x3e, 0x27, 0xea, 0xa9, 0x3e,
  0xc2, 0x36, 0xa4, 0x3d, 0x56, 0xca, 0x27, 0x3e, 0xe3, 0x7c, 0xb0, 0x3e,
  0x46, 0x4c, 0x25, 0xbe, 0xbe, 0xe7, 0x34, 0x3d, 0x2a, 0x1b, 0x84, 0x3e,
  0x12, 0x70, 0x47, 0xbc, 0x69, 0xdb, 0x1e, 0x3d, 0xfd, 0x33, 0xff, 0xb8,
  0xb4, 0x3a, 0xe3, 0xbd, 0x4e, 0xe4, 0x40, 0x3e, 0x26, 0x90, 0x33, 0x3c,
  0x21, 0x3c, 0xff, 0xbd, 0x70, 0xdd, 0x8d, 0x3e, 0xef, 0x8a, 0x99, 0x3e,
  0x99, 0x4c, 0x9c, 0x3d, 0x0a, 0x71, 0x90, 0x3d, 0x18, 0x08, 0x37, 0xbe,
  0x80, 0x7e, 0x72, 0x3b, 0x33, 0x65, 0x03, 0x3e, 0x4d, 0x86, 0x13, 0x3e,
  0x45, 0x02, 0x05, 0x3e, 0x10, 0x86, 0x0f, 0x3c, 0x6d, 0x29, 0x46, 0x3e,
  0x1e, 0x78, 0xcc, 0x3d, 0x18, 0x56, 0x38, 0xbe, 0x67, 0xb5, 0x51, 0xbe,
  0xa0, 0x72, 0x30, 0xbe, 0x54, 0xc6, 0x83, 0xbd, 0x88, 0xdf, 0x55, 0xbd,
  0x9e, 0x50, 0xff, 0x3d, 0xe7, 0x2b, 0xbb, 0xbd, 0x5f, 0xfb, 0x06, 0x3e,
  0x58, 0xf5, 0xb2, 0xbc, 0x9f, 0xc5, 0x0b, 0x3e, 0x26, 0x4a, 0xd9, 0x3d,
  0xde, 0xed, 0xaf, 0xbd, 0xbd, 0x0e, 0xee, 0xbd, 0x60, 0xeb, 0x8c, 0x3b,
  0x42, 0x61, 0xd3, 0xbd, 0xa9, 0xea, 0x53, 0x3e, 0xa7, 0xe9, 0x28, 0x3e,
  0x85, 0x2e, 0x42, 0x3e, 0xc0, 0xbe, 0x7a, 0x3b, 0xc2, 0x6c, 0x30, 0xbe,
  0xc8, 0xbb, 0x5d, 0xbd, 0xa1, 0xd5, 0x2c, 0x3e, 0xe3, 0x25, 0xbc, 0xbd,
  0x9e, 0xbf, 0x56, 0xbe, 0x3e, 0xc8, 0x00, 0xbe, 0xda, 0x36, 0x46, 0xbe,
  0x3e, 0x9f, 0x4f, 0xbe, 0xee, 0x47, 0x85, 0x3d, 0x4e, 0xfa, 0xd5, 0xbd,
  0x02, 0xe2, 0xa9, 0x3d, 0x54, 0x07, 0x16, 0xbe, 0x34, 0x84, 0x10, 0x3d,
  0x3a, 0xee, 0xa2, 0x3d, 0x5a, 0x99, 0x83, 0x3d, 0x20, 0x49, 0xff, 0x3b,
  0x47, 0x96, 0x51, 0xbe, 0x1a, 0xec, 0x1d, 0xbe, 0xd8, 0xe6, 0x01, 0xbe,
  0xb2, 0x7b, 0x3f, 0xbe, 0xd2, 0xbb, 0x52, 0xbe, 0xc7, 0x8c, 0x3c, 0x3e,
  0x9a, 0x1d, 0xea, 0x3d, 0x7b, 0xde, 0x01, 0xbe, 0x93, 0xdb, 0xc4, 0xbd,
  0xc8, 0xce, 0xfe, 0xbd, 0x7f, 0x3d, 0x4b, 0x3e, 0x40, 0x49, 0x37, 0xbd,
  0xbb, 0xe6, 0xca, 0xbd, 0xca, 0x3f, 0x8e, 0x3d, 0xf8, 0xbd, 0x0b, 0xbd,
  0x00, 0xdf, 0xeb, 0x3c, 0x74, 0xe5, 0x9c, 0xbd, 0x1e, 0xae, 0x2f, 0xbe,
  0x85, 0xbf, 0xc8, 0xbd, 0x12, 0xaa, 0x99, 0x3d, 0x0a, 0xd3, 0xc5, 0x3d,
  0xe6, 0xf8, 0x32, 0xbe, 0x12, 0x94, 0xa3, 0x3d, 0xa0, 0x5b, 0x3f, 0x3c,
  0xa1, 0x92, 0x5a, 0xbe, 0x4a, 0x9f, 0xe0, 0x3d, 0xdb, 0x20, 0x44, 0xbe,
  0x40, 0x20, 0x02, 0xbb, 0x42, 0xd8, 0xf3, 0x3d, 0xb6, 0xa0, 0xba, 0x3d,
  0xca, 0x05, 0x25, 0xbe, 0x94, 0x2c, 0x41, 0xbd, 0xef, 0xe9, 0x22, 0x3e,
  0xe2, 0x20, 0x1f, 0xbe, 0x96, 0x3d, 0xac, 0x3d, 0x6e, 0x3b, 0x80, 0xbd,
  0x68, 0xda, 0xea, 0x3c, 0x91, 0xdc, 0x3f, 0x3e, 0x66, 0xc4, 0xa8, 0x3d,
  0x41, 0x08, 0x34, 0x3e, 0x03, 0xe6, 0x33, 0xbe, 0x99, 0xe1, 0x3c, 0xbe,
  0x60, 0xbd, 0xaa, 0x3b, 0xb4, 0xa0, 0x2f, 0xbe, 0x20, 0x06, 0x82, 0x3c,
  0x8c, 0x02, 0xb1, 0xbd, 0x8b, 0xed, 0x53, 0xbe, 0x4f, 0xb1, 0x08, 0x3e,
  0x06, 0x0a, 0x21, 0xbe, 0x81, 0xf9, 0x31, 0xbe, 0xa3, 0x80, 0x1b, 0x3e,
  0x10, 0x77, 0xff, 0x3c, 0x43, 0xe7, 0x06, 0x3e, 0x41, 0x42, 0x27, 0x3e,
  0x5e, 0x3d, 0xa7, 0x3d, 0xbe, 0x41, 0xb0, 0x3d, 0xaa, 0xca, 0x94, 0x3d,
  0xe4, 0x8e, 0xca, 0xbd, 0x9c, 0xe8, 0x64, 0x3d, 0xdf, 0x1f, 0x48, 0xbe,
  0xf0, 0xae, 0x9d, 0xbd, 0x34, 0x25, 0x51, 0x3d, 0x78, 0x7c, 0x70, 0xbd,
  0x16, 0x86, 0x8a, 0x3d, 0x8d, 0xaa, 0x1d, 0x3e, 0x3e, 0x93, 0x9a, 0x3d,
  0x37, 0xf0, 0x51, 0x3e, 0xee, 0x0f, 0xaa, 0x3d, 0x78, 0x83, 0x27, 0xbe,
  0xb8, 0x20, 0xc9, 0xbc, 0xf1, 0xd4, 0x23, 0x3e, 0x6c, 0x03, 0x60, 0x3d,
  0xe6, 0x34, 0xb0, 0xbd, 0x3b, 0x2e, 0x39, 0x3e, 0x47, 0x05, 0xd2, 0xbd,
  0xec, 0x09, 0x78, 0x3d, 0x93, 0xad, 0xbe, 0xbc, 0x62, 0xc6, 0x43, 0xbe,
  0x0a, 0x02, 0xa7, 0x3d, 0x8e, 0xe3, 0xc1, 0xbd, 0x90, 0x9c, 0x55, 0xbe,
  0x09, 0xf2, 0xbf, 0x3d, 0x4a, 0xda, 0x84, 0x3d, 0x80, 0x97, 0xf0, 0x3d,
  0xf8, 0x66, 0x4c, 0xbe, 0xf8, 0x37, 0x3d, 0xbd, 0x80, 0xfd, 0x95, 0xbd,
  0xdc, 0x8a, 0x35, 0x3d, 0x95, 0x0f, 0x28, 0x3e, 0xdb, 0xb2, 0x2a, 0xbe,
  0xfc, 0xd6, 0xed, 0x3d, 0x61, 0xc2, 0x15, 0xbc, 0xb7, 0xdb, 0x40, 0xbe,
  0x36, 0xc4, 0x1f, 0xbe, 0xf4, 0xb5, 0x13, 0x3c, 0xce, 0x5b, 0x0d, 0xbe,
  0xfc, 0x9d, 0x36, 0xbe, 0x44, 0xac, 0xf5, 0xbb, 0xb5, 0x53, 0x10, 0xbe,
  0x6d, 0x0b, 0x3d, 0xbe, 0x51, 0x2b, 0xcb, 0x3b, 0x74, 0xe3, 0x52, 0xbe,
  0x49, 0x73, 0xd4, 0x3d, 0xbd, 0x17, 0x80, 0xbd, 0x76, 0xa1, 0xae, 0x3d,
  0xee, 0xfc, 0x11, 0x3d, 0x03, 0x26, 0xc5, 0x3d, 0xc3, 0x33, 0xeb, 0x3d,
  0x2e, 0x29, 0x36, 0xbe, 0xf7, 0xff, 0xc6, 0xbb, 0x43, 0x0b, 0x35, 0x3d,
  0x8d, 0xb9, 0x89, 0x3d, 0x87, 0xc0, 0x23, 0x3e, 0x86, 0x0c, 0x27, 0x3e,
  0x9f, 0x2e, 0x24, 0x3e, 0x14, 0x83, 0xec, 0x3d, 0x00, 0xf6, 0x33, 0x3e,
  0xe1, 0xe1, 0x24, 0xbe, 0x0b, 0x78, 0x2b, 0xb8, 0xb2, 0x74, 0x96, 0x3d,
  0x0f, 0xfd, 0x95, 0xbd, 0xf8, 0x0c, 0x30, 0xbe, 0x95, 0xeb, 0xd7, 0xbc,
  0xfd, 0x72, 0x09, 0x3e, 0xec, 0x67, 0x2d, 0xbe, 0x7f, 0x88, 0x21, 0x3e,
  0x32, 0x89, 0x12, 0x3e, 0x43, 0x54, 0x35, 0x3e, 0x54, 0xfa, 0x01, 0xbd,
  0x5a, 0x85, 0xdf, 0x3c, 0xa2, 0x50, 0x51, 0x3e, 0x04, 0x59, 0x2d, 0x3e,
  0x99, 0x74, 0xc3, 0xbd, 0x3a, 0x52, 0x85, 0x3c, 0xad, 0x7b, 0x26, 0x3e,
  0x10, 0x06, 0x0f, 0x3d, 0x60, 0xd2, 0x54, 0x3e, 0x52, 0x95, 0x02, 0x3c,
  0x57, 0xb3, 0xce, 0x3d, 0xd5, 0x90, 0xca, 0xbd, 0x0b, 0xd7, 0x51, 0x3e,
  0x77, 0x17, 0x32, 0xbd, 0x56, 0xcb, 0xe2, 0xbd, 0xe4, 0x52, 0x84, 0xbb,
  0xcb, 0x5f, 0x7f, 0xbd, 0xc3, 0x51, 0x13, 0x3d, 0xaf, 0x3e, 0x1b, 0x3d,
  0xc8, 0xa4, 0xb1, 0xbd, 0xbc, 0xf2, 0xdc, 0xbd, 0xb6, 0xf5, 0x32, 0xbe,
  0xd7, 0x4c, 0x5c, 0x3b, 0x79, 0xe7, 0x32, 0x3e, 0x70, 0x0c, 0x81, 0x3c,
  0x2b, 0xff, 0x5f, 0xbd, 0x81, 0x1e, 0x59, 0xbe, 0x8b, 0xee, 0x0a, 0xbe,
  0x7f, 0xea, 0x90, 0xbb, 0x99, 0xad, 0x44, 0x3e, 0xca, 0x87, 0x12, 0xbe,
  0xa9, 0x25, 0xe9, 0x3c, 0x58, 0x0b, 0x5b, 0xbd, 0xc3, 0x1d, 0x57, 0xbe,
  0x0b, 0xc4, 0xd2, 0x3d, 0x70, 0xa1, 0x64, 0x3c, 0xbf, 0x24, 0x3a, 0xbe,
  0x16, 0xb2, 0xfc, 0x3d, 0xb8, 0x94, 0x74, 0x3b, 0x8d, 0x7b, 0x56, 0xbe,
  0xfa, 0xb8, 0x42, 0x3e, 0x79, 0x29, 0x57, 0xbd, 0x0f, 0x08, 0x88, 0x3d,
  0xb0, 0x2c, 0x2c, 0x3d, 0x9b, 0x1f, 0x4d, 0xbe, 0x2a, 0xf2, 0xd0, 0xbd,
  0x33, 0x4a, 0x0e, 0x3d, 0x4d, 0x0b, 0x52, 0x3e, 0x12, 0xef, 0x06, 0x3c,
  0x5c, 0xa7, 0x15, 0x3e, 0xd6, 0x93, 0x78, 0xbb, 0x0d, 0xf1, 0x39, 0x3b,
  0x0e, 0x05, 0x0e, 0xbe, 0x75, 0x6e, 0x1a, 0xbc, 0x48, 0x6b, 0xca, 0x3d,
  0xe0, 0x84, 0x9b, 0xbd, 0x77, 0x8b, 0x6c, 0xbc, 0x7f, 0xbf, 0x53, 0x3e,
  0xe4, 0x72, 0x3d, 0xbe, 0x30, 0xf1, 0x29, 0xbe, 0xc9, 0x96, 0x24, 0xbe,
  0x82, 0x75, 0x43, 0xbe, 0x34, 0x02, 0xc4, 0x3d, 0xd1, 0xfb, 0xed, 0xbd,
  0x1b, 0x66, 0xf5, 0xbd, 0x52, 0x4c, 0x4f, 0x3e, 0xea, 0x29, 0x5a, 0xbe,
  0xf9, 0x3a, 0x55, 0xbc, 0x94, 0x22, 0x59, 0x3b, 0x0a, 0x54, 0xb8, 0xbd,
  0x0c, 0x32, 0x80, 0xbd, 0xab, 0x87, 0x4c, 0x3d, 0xf1, 0xd8, 0xe5, 0x3c,
  0xa9, 0xfd, 0x08, 0x3e, 0x61, 0x03, 0x06, 0x3e, 0x05, 0xd3, 0x78, 0x3e,
  0x6c, 0xdf, 0x16, 0x3e, 0xa6, 0x3d, 0x29, 0x3e, 0xbe, 0x84, 0x5a, 0x3d,
  0xba, 0x96, 0xef, 0xbd, 0x6c, 0x18, 0x16, 0x3e, 0xb1, 0xc3, 0x3a, 0x3e,
  0x07, 0xc1, 0x67, 0xbd, 0xe5, 0xb2, 0x76, 0x3e, 0x58, 0xe2, 0x1f, 0xbe,
  0x17, 0x7d, 0x13, 0xbe, 0x4c, 0xdb, 0x91, 0x3e, 0x5c, 0x28, 0x87, 0xbe,
  0x4a, 0x5c, 0x28, 0xbe, 0x32, 0x7b, 0xe8, 0x3d, 0x3b, 0x21, 0x16, 0x3d,
  0x2b, 0x58, 0x89, 0xbe, 0xbd, 0xe8, 0x4c, 0x3e, 0xaf, 0xd5, 0x4f, 0xbe,
  0xf2, 0x2c, 0x1f, 0x3d, 0x70, 0x02, 0xe1, 0x3d, 0xb0, 0x13, 0xa3, 0x3d,
  0x31, 0x08, 0x79, 0x3d, 0x2b, 0x10, 0xe7, 0xbd, 0x83, 0xc4, 0x9a, 0xbe,
  0x09, 0x83, 0x6f, 0x3e, 0x72, 0x9d, 0x02, 0x3e, 0xf4, 0x07, 0xea, 0x3c,
  0xcd, 0xf7, 0x30, 0x3d, 0xcf, 0xb3, 0xa2, 0xbd, 0x64, 0x90, 0x32, 0xbe,
  0xd1, 0xcf, 0x9c, 0x3e, 0x65, 0xee, 0x5c, 0x3d, 0xe2, 0xda, 0x3c, 0xbe,
  0x96, 0xc6, 0x45, 0x3d, 0xf6, 0xf1, 0x1f, 0x3c, 0x24, 0x90, 0x0f, 0x3e,
  0x62, 0x24, 0xa8, 0x3c, 0xe4, 0x57, 0xcb, 0xbe, 0x0b, 0x3d, 0x8f, 0x3d,
  0xe2, 0xa4, 0xef, 0x3d, 0x0b, 0x68, 0x55, 0xbe, 0x0d, 0xc1, 0xb0, 0xbd,
  0x04, 0xc7, 0xb4, 0x3e, 0x49, 0xd3, 0x76, 0xbe, 0x91, 0xc2, 0x10, 0xbe,
  0xc8, 0x07, 0x9a, 0x3e, 0xd4, 0xaf, 0x0c, 0xbe, 0x40, 0x48, 0x88, 0x3d,
  0xc6, 0x73, 0x3a, 0x3e, 0xd7, 0xe2, 0xc3, 0xbd, 0x08, 0x2c, 0x42, 0x3c,
  0x8f, 0x25, 0x86, 0x3e, 0x25, 0x52, 0xd1, 0xbd, 0xda, 0xe9, 0xe5, 0x3d,
  0xe5, 0xa4, 0x59, 0x3e, 0x0d, 0x74, 0x24, 0xbd, 0x5d, 0x77, 0x62, 0x3e,
  0xe3, 0xab, 0x77, 0x3e, 0x49, 0x16, 0x5d, 0xbe, 0xf4, 0x95, 0xb2, 0x3d,
  0xe0, 0x6a, 0x97, 0x3c, 0x82, 0xca, 0xbb, 0xbe, 0xd7, 0x7c, 0x6d, 0x3c,
  0xc6, 0x2b, 0x59, 0x3c, 0xda, 0xb1, 0x68, 0xbe, 0x5c, 0x7a, 0x87, 0x3e,
  0xcf, 0x37, 0xc7, 0x3d, 0x36, 0x86, 0xc4, 0xbd, 0x7e, 0x48, 0x9b, 0x3d,
  0xf9, 0xe9, 0x6a, 0x3d, 0x24, 0xcf, 0x8e, 0xbe, 0x76, 0x68, 0x15, 0x3e,
  0xa3, 0xaa, 0x07, 0xbd, 0x4f, 0x4f, 0x9f, 0xbe, 0x63, 0x7d, 0x45, 0x3e,
  0x46, 0x11, 0x83, 0x3e, 0x2b, 0x30, 0xa9, 0xbc, 0x18, 0x03, 0x4a, 0x3d,
  0x94, 0xe3, 0x81, 0xbd, 0x1a, 0xde, 0xb6, 0xbe, 0xd6, 0x87, 0x7b, 0x3c,
  0x04, 0x7d, 0x05, 0x3c, 0xf3, 0xfb, 0xab, 0xbe, 0xd8, 0x62, 0x59, 0x3e,
  0x7e, 0x14, 0x8d, 0x3e, 0x75, 0x5e, 0x07, 0xbe, 0xcb, 0x72, 0x22, 0xbe,
  0xba, 0xb2, 0xb3, 0xbc, 0xe8, 0xcf, 0x40, 0xbe, 0xf2, 0xb5, 0x0b, 0xbe,
  0x9a, 0xcd, 0x0d, 0xba, 0x88, 0x2e, 0x0b, 0xbe, 0xaa, 0x7e, 0xc0, 0xbc,
  0x18, 0xcf, 0xe0, 0xbc, 0x99, 0xd4, 0x0a, 0xbd, 0x40, 0xf4, 0x4a, 0xbe,
  0xb1, 0x23, 0xdf, 0x3d, 0x5b, 0xc6, 0x27, 0xbe, 0x00, 0xa4, 0xbd, 0xbd,
  0xaa, 0xcd, 0x79, 0x3e, 0x45, 0xd6, 0x3b, 0xbe, 0xab, 0x52, 0x31, 0xbe,
  0x3f, 0xad, 0x67, 0xbd, 0x68, 0x43, 0x1c, 0x3d, 0x41, 0x6e, 0x76, 0x3d,
  0x31, 0xd2, 0x3a, 0x3e, 0x6a, 0x28, 0x6b, 0xbe, 0xf3, 0x80, 0xa9, 0xbd,
  0x2c, 0x15, 0x50, 0x3e, 0x6d, 0x42, 0x5e, 0xbe, 0x2b, 0x06, 0x56, 0xbe,
  0x0e, 0x29, 0x31, 0xbc, 0xee, 0xfe, 0xff, 0xff, 0x04, 0x00, 0x00, 0x00,
  0x28, 0x00, 0x00, 0x00, 0xe6, 0xdb, 0x09, 0xbc, 0xd6, 0x85, 0x91, 0xbc,
  0x00, 0x00, 0x00, 0x00, 0x15, 0x88, 0x09, 0x3d, 0x00, 0x00, 0x00, 0x00,
  0x84, 0xeb, 0x6c, 0x3b, 0x9e, 0x11, 0x27, 0x3d, 0x00, 0x00, 0x00, 0x00,
  0x18, 0x25, 0xb6, 0xbb, 0x87, 0x20, 0x2b, 0x3d, 0x22, 0xff, 0xff, 0xff,
  0x04, 0x00, 0x00, 0x00, 0x28, 0x00, 0x00, 0x00, 0xd6, 0x40, 0xc9, 0xbc,
  0xf6, 0xb4, 0x22, 0x3e, 0xed, 0xbe, 0x26, 0xbd, 0x8e, 0x86, 0x3d, 0x3d,
  0xe4, 0xbf, 0x27, 0xbb, 0xda, 0x6b, 0x5b, 0x3d, 0x22, 0x10, 0xb7, 0x3d,
  0xc9, 0x4a, 0xd3, 0x3c, 0xa4, 0x70, 0x2e, 0x3c, 0xd9, 0x8e, 0x6a, 0xbd,
  0x56, 0xff, 0xff, 0xff, 0x04, 0x00, 0x00, 0x00, 0x08, 0x00, 0x00, 0x00,
  0x77, 0xb7, 0xfd, 0x3b, 0x72, 0xb7, 0xfd, 0xbb, 0xac, 0xfa, 0xff, 0xff,
  0xb0, 0xfa, 0xff, 0xff, 0x0f, 0x00, 0x00, 0x00, 0x4d, 0x4c, 0x49, 0x52,
  0x20, 0x43, 0x6f, 0x6e, 0x76, 0x65, 0x72, 0x74, 0x65, 0x64, 0x2e, 0x00,
  0x01, 0x00, 0x00, 0x00, 0x14, 0x00, 0x00, 0x00, 0x00, 0x00, 0x0e, 0x00,
  0x18, 0x00, 0x14, 0x00, 0x10, 0x00, 0x0c, 0x00, 0x08, 0x00, 0x04, 0x00,
  0x0e, 0x00, 0x00, 0x00, 0x14, 0x00, 0x00, 0x00, 0x1c, 0x00, 0x00, 0x00,
  0x24, 0x01, 0x00, 0x00, 0x28, 0x01, 0x00, 0x00, 0x2c, 0x01, 0x00, 0x00,
  0x04, 0x00, 0x00, 0x00, 0x6d, 0x61, 0x69, 0x6e, 0x00, 0x00, 0x00, 0x00,
  0x04, 0x00, 0x00, 0x00, 0xcc, 0x00, 0x00, 0x00, 0x84, 0x00, 0x00, 0x00,
  0x50, 0x00, 0x00, 0x00, 0x14, 0x00, 0x00, 0x00, 0x00, 0x00, 0x0e, 0x00,
  0x1a, 0x00, 0x14, 0x00, 0x10, 0x00, 0x0c, 0x00, 0x0b, 0x00, 0x04, 0x00,
  0x0e, 0x00, 0x00, 0x00, 0x1c, 0x00, 0x00, 0x00, 0x00, 0x00, 0x00, 0x09,
  0x1c, 0x00, 0x00, 0x00, 0x20, 0x00, 0x00, 0x00, 0x01, 0x00, 0x00, 0x00,
  0x00, 0x00, 0x06, 0x00, 0x08, 0x00, 0x04, 0x00, 0x06, 0x00, 0x00, 0x00,
  0x00, 0x00, 0x80, 0x3f, 0x01, 0x00, 0x00, 0x00, 0x0a, 0x00, 0x00, 0x00,
  0x01, 0x00, 0x00, 0x00, 0x09, 0x00, 0x00, 0x00, 0x9a, 0xff, 0xff, 0xff,
  0x10, 0x00, 0x00, 0x00, 0x00, 0x00, 0x00, 0x08, 0x0c, 0x00, 0x00, 0x00,
  0x10, 0x00, 0x00, 0x00, 0x74, 0xfb, 0xff, 0xff, 0x01, 0x00, 0x00, 0x00,
  0x09, 0x00, 0x00, 0x00, 0x03, 0x00, 0x00, 0x00, 0x08, 0x00, 0x00, 0x00,
  0x06, 0x00, 0x00, 0x00, 0x01, 0x00, 0x00, 0x00, 0xca, 0xff, 0xff, 0xff,
  0x10, 0x00, 0x00, 0x00, 0x00, 0x00, 0x00, 0x08, 0x10, 0x00, 0x00, 0x00,
  0x14, 0x00, 0x00, 0x00, 0xba, 0xff, 0xff, 0xff, 0x00, 0x00, 0x00, 0x01,
  0x01, 0x00, 0x00, 0x00, 0x08, 0x00, 0x00, 0x00, 0x03, 0x00, 0x00, 0x00,
  0x07, 0x00, 0x00, 0x00, 0x05, 0x00, 0x00, 0x00, 0x02, 0x00, 0x00, 0x00,
  0x00, 0x00, 0x0e, 0x00, 0x16, 0x00, 0x00, 0x00, 0x10, 0x00, 0x0c, 0x00,
  0x0b, 0x00, 0x04, 0x00, 0x0e, 0x00, 0x00, 0x00, 0x18, 0x00, 0x00, 0x00,
  0x00, 0x00, 0x00, 0x08, 0x18, 0x00, 0x00, 0x00, 0x1c, 0x00, 0x00, 0x00,
  0x00, 0x00, 0x06, 0x00, 0x08, 0x00, 0x07, 0x00, 0x06, 0x00, 0x00, 0x00,
  0x00, 0x00, 0x00, 0x01, 0x01, 0x00, 0x00, 0x00, 0x07, 0x00, 0x00, 0x00,
  0x03, 0x00, 0x00, 0x00, 0x00, 0x00, 0x00, 0x00, 0x04, 0x00, 0x00, 0x00,
  0x03, 0x00, 0x00, 0x00, 0x01, 0x00, 0x00, 0x00, 0x0a, 0x00, 0x00, 0x00,
  0x01, 0x00, 0x00, 0x00, 0x00, 0x00, 0x00, 0x00, 0x0b, 0x00, 0x00, 0x00,
  0xb8, 0x03, 0x00, 0x00, 0x6c, 0x03, 0x00, 0x00, 0x24, 0x03, 0x00, 0x00,
  0xec, 0x02, 0x00, 0x00, 0xa0, 0x02, 0x00, 0x00, 0x54, 0x02, 0x00, 0x00,
  0x08, 0x02, 0x00, 0x00, 0x70, 0x01, 0x00, 0x00, 0xd8, 0x00, 0x00, 0x00,
  0x5c, 0x00, 0x00, 0x00, 0x04, 0x00, 0x00, 0x00, 0x88, 0xfc, 0xff, 0xff,
  0x14, 0x00, 0x00, 0x00, 0x1c, 0x00, 0x00, 0x00, 0x1c, 0x00, 0x00, 0x00,
  0x0b, 0x00, 0x00, 0x00, 0x34, 0x00, 0x00, 0x00, 0x02, 0x00, 0x00, 0x00,
  0xff, 0xff, 0xff, 0xff, 0x02, 0x00, 0x00, 0x00, 0x74, 0xfc, 0xff, 0xff,
  0x19, 0x00, 0x00, 0x00, 0x53, 0x74, 0x61, 0x74, 0x65, 0x66, 0x75, 0x6c,
  0x50, 0x61, 0x72, 0x74, 0x69, 0x74, 0x69, 0x6f, 0x6e, 0x65, 0x64, 0x43,
  0x61, 0x6c, 0x6c, 0x3a, 0x30, 0x00, 0x00, 0x00, 0x02, 0x00, 0x00, 0x00,
  0x01, 0x00, 0x00, 0x00, 0x02, 0x00, 0x00, 0x00, 0xdc, 0xfc, 0xff, 0xff,
  0x14, 0x00, 0x00, 0x00, 0x1c, 0x00, 0x00, 0x00, 0x1c, 0x00, 0x00, 0x00,
  0x0a, 0x00, 0x00, 0x00, 0x58, 0x00, 0x00, 0x00, 0x02, 0x00, 0x00, 0x00,
  0xff, 0xff, 0xff, 0xff, 0x02, 0x00, 0x00, 0x00, 0xc8, 0xfc, 0xff, 0xff,
  0x3c, 0x00, 0x00, 0x00, 0x73, 0x65, 0x71, 0x75, 0x65, 0x6e, 0x74, 0x69,
  0x61, 0x6c, 0x5f, 0x31, 0x30, 0x2f, 0x64, 0x65, 0x6e, 0x73, 0x65, 0x5f,
  0x33, 0x32, 0x2f, 0x4d, 0x61, 0x74, 0x4d, 0x75, 0x6c, 0x3b, 0x73, 0x65,
  0x71, 0x75, 0x65, 0x6e, 0x74, 0x69, 0x61, 0x6c, 0x5f, 0x31, 0x30, 0x2f,
  0x64, 0x65, 0x6e, 0x73, 0x65, 0x5f, 0x33, 0x32, 0x2f, 0x42, 0x69, 0x61,
  0x73, 0x41, 0x64, 0x64, 0x00, 0x00, 0x00, 0x00, 0x02, 0x00, 0x00, 0x00,
  0x01, 0x00, 0x00, 0x00, 0x02, 0x00, 0x00, 0x00, 0x54, 0xfd, 0xff, 0xff,
  0x14, 0x00, 0x00, 0x00, 0x1c, 0x00, 0x00, 0x00, 0x1c, 0x00, 0x00, 0x00,
  0x09, 0x00, 0x00, 0x00, 0x74, 0x00, 0x00, 0x00, 0x02, 0x00, 0x00, 0x00,
  0xff, 0xff, 0xff, 0xff, 0x0a, 0x00, 0x00, 0x00, 0x40, 0xfd, 0xff, 0xff,
  0x58, 0x00, 0x00, 0x00, 0x73, 0x65, 0x71, 0x75, 0x65, 0x6e, 0x74, 0x69,
  0x61, 0x6c, 0x5f, 0x31, 0x30, 0x2f, 0x64, 0x65, 0x6e, 0x73, 0x65, 0x5f,
  0x33, 0x31, 0x2f, 0x4d, 0x61, 0x74, 0x4d, 0x75, 0x6c, 0x3b, 0x73, 0x65,
  0x71, 0x75, 0x65, 0x6e, 0x74, 0x69, 0x61, 0x6c, 0x5f, 0x31, 0x30, 0x2f,
  0x64, 0x65, 0x6e, 0x73, 0x65, 0x5f, 0x33, 0x31, 0x2f, 0x52, 0x65, 0x6c,
  0x75, 0x3b, 0x73, 0x65, 0x71, 0x75, 0x65, 0x6e, 0x74, 0x69, 0x61, 0x6c,
  0x5f, 0x31, 0x30, 0x2f, 0x64, 0x65, 0x6e, 0x73, 0x65, 0x5f, 0x33, 0x31,
  0x2f, 0x42, 0x69, 0x61, 0x73, 0x41, 0x64, 0x64, 0x00, 0x00, 0x00, 0x00,
  0x02, 0x00, 0x00, 0x00, 0x01, 0x00, 0x00, 0x00, 0x0a, 0x00, 0x00, 0x00,
  0xe8, 0xfd, 0xff, 0xff, 0x14, 0x00, 0x00, 0x00, 0x1c, 0x00, 0x00, 0x00,
  0x1c, 0x00, 0x00, 0x00, 0x08, 0x00, 0x00, 0x00, 0x74, 0x00, 0x00, 0x00,
  0x02, 0x00, 0x00, 0x00, 0xff, 0xff, 0xff, 0xff, 0x0a, 0x00, 0x00, 0x00,
  0xd4, 0xfd, 0xff, 0xff, 0x58, 0x00, 0x00, 0x00, 0x73, 0x65, 0x71, 0x75,
  0x65, 0x6e, 0x74, 0x69, 0x61, 0x6c, 0x5f, 0x31, 0x30, 0x2f, 0x64, 0x65,
  0x6e, 0x73, 0x65, 0x5f, 0x33, 0x30, 0x2f, 0x4d, 0x61, 0x74, 0x4d, 0x75,
  0x6c, 0x3b, 0x73, 0x65, 0x71, 0x75, 0x65, 0x6e, 0x74, 0x69, 0x61, 0x6c,
  0x5f, 0x31, 0x30, 0x2f, 0x64, 0x65, 0x6e, 0x73, 0x65, 0x5f, 0x33, 0x30,
  0x2f, 0x52, 0x65, 0x6c, 0x75, 0x3b, 0x73, 0x65, 0x71, 0x75, 0x65, 0x6e,
  0x74, 0x69, 0x61, 0x6c, 0x5f, 0x31, 0x30, 0x2f, 0x64, 0x65, 0x6e, 0x73,
  0x65, 0x5f, 0x33, 0x30, 0x2f, 0x42, 0x69, 0x61, 0x73, 0x41, 0x64, 0x64,
  0x00, 0x00, 0x00, 0x00, 0x02, 0x00, 0x00, 0x00, 0x01, 0x00, 0x00, 0x00,
  0x0a, 0x00, 0x00, 0x00, 0xbe, 0xfe, 0xff, 0xff, 0x10, 0x00, 0x00, 0x00,
  0x10, 0x00, 0x00, 0x00, 0x07, 0x00, 0x00, 0x00, 0x2c, 0x00, 0x00, 0x00,
  0x58, 0xfe, 0xff, 0xff, 0x1d, 0x00, 0x00, 0x00, 0x73, 0x65, 0x71, 0x75,
  0x65, 0x6e, 0x74, 0x69, 0x61, 0x6c, 0x5f, 0x31, 0x30, 0x2f, 0x64, 0x65,
  0x6e, 0x73, 0x65, 0x5f, 0x33, 0x32, 0x2f, 0x4d, 0x61, 0x74, 0x4d, 0x75,
  0x6c, 0x00, 0x00, 0x00, 0x02, 0x00, 0x00, 0x00, 0x02, 0x00, 0x00, 0x00,
  0x0a, 0x00, 0x00, 0x00, 0x06, 0xff, 0xff, 0xff, 0x10, 0x00, 0x00, 0x00,
  0x10, 0x00, 0x00, 0x00, 0x06, 0x00, 0x00, 0x00, 0x2c, 0x00, 0x00, 0x00,
  0xa0, 0xfe, 0xff, 0xff, 0x1d, 0x00, 0x00, 0x00, 0x73, 0x65, 0x71, 0x75,
  0x65, 0x6e, 0x74, 0x69, 0x61, 0x6c, 0x5f, 0x31, 0x30, 0x2f, 0x64, 0x65,
  0x6e, 0x73, 0x65, 0x5f, 0x33, 0x31, 0x2f, 0x4d, 0x61, 0x74, 0x4d, 0x75,
  0x6c, 0x00, 0x00, 0x00, 0x02, 0x00, 0x00, 0x00, 0x0a, 0x00, 0x00, 0x00,
  0x0a, 0x00, 0x00, 0x00, 0x4e, 0xff, 0xff, 0xff, 0x10, 0x00, 0x00, 0x00,
  0x10, 0x00, 0x00, 0x00, 0x05, 0x00, 0x00, 0x00, 0x2c, 0x00, 0x00, 0x00,
  0xe8, 0xfe, 0xff, 0xff, 0x1d, 0x00, 0x00, 0x00, 0x73, 0x65, 0x71, 0x75,
  0x65, 0x6e, 0x74, 0x69, 0x61, 0x6c, 0x5f, 0x31, 0x30, 0x2f, 0x64, 0x65,
  0x6e, 0x73, 0x65, 0x5f, 0x33, 0x30, 0x2f, 0x4d, 0x61, 0x74, 0x4d, 0x75,
  0x6c, 0x00, 0x00, 0x00, 0x02, 0x00, 0x00, 0x00, 0x0a, 0x00, 0x00, 0x00,
  0x78, 0x00, 0x00, 0x00, 0x96, 0xff, 0xff, 0xff, 0x10, 0x00, 0x00, 0x00,
  0x10, 0x00, 0x00, 0x00, 0x04, 0x00, 0x00, 0x00, 0x1c, 0x00, 0x00, 0x00,
  0x30, 0xff, 0xff, 0xff, 0x0d, 0x00, 0x00, 0x00, 0x64, 0x65, 0x6e, 0x73,
  0x65, 0x5f, 0x33, 0x30, 0x2f, 0x62, 0x69, 0x61, 0x73, 0x00, 0x00, 0x00,
  0x01, 0x00, 0x00, 0x00, 0x0a, 0x00, 0x00, 0x00, 0xca, 0xff, 0xff, 0xff,
  0x10, 0x00, 0x00, 0x00, 0x10, 0x00, 0x00, 0x00, 0x03, 0x00, 0x00, 0x00,
  0x1c, 0x00, 0x00, 0x00, 0x64, 0xff, 0xff, 0xff, 0x0d, 0x00, 0x00, 0x00,
  0x64, 0x65, 0x6e, 0x73, 0x65, 0x5f, 0x33, 0x31, 0x2f, 0x62, 0x69, 0x61,
  0x73, 0x00, 0x00, 0x00, 0x01, 0x00, 0x00, 0x00, 0x0a, 0x00, 0x00, 0x00,
  0x00, 0x00, 0x0e, 0x00, 0x14, 0x00, 0x10, 0x00, 0x00, 0x00, 0x0c, 0x00,
  0x08, 0x00, 0x04, 0x00, 0x0e, 0x00, 0x00, 0x00, 0x10, 0x00, 0x00, 0x00,
  0x10, 0x00, 0x00, 0x00, 0x02, 0x00, 0x00, 0x00, 0x1c, 0x00, 0x00, 0x00,
  0xa8, 0xff, 0xff, 0xff, 0x0d, 0x00, 0x00, 0x00, 0x64, 0x65, 0x6e, 0x73,
  0x65, 0x5f, 0x33, 0x32, 0x2f, 0x62, 0x69, 0x61, 0x73, 0x00, 0x00, 0x00,
  0x01, 0x00, 0x00, 0x00, 0x02, 0x00, 0x00, 0x00, 0x14, 0x00, 0x18, 0x00,
  0x14, 0x00, 0x00, 0x00, 0x10, 0x00, 0x0c, 0x00, 0x08, 0x00, 0x00, 0x00,
  0x00, 0x00, 0x04, 0x00, 0x14, 0x00, 0x00, 0x00, 0x14, 0x00, 0x00, 0x00,
  0x20, 0x00, 0x00, 0x00, 0x20, 0x00, 0x00, 0x00, 0x01, 0x00, 0x00, 0x00,
  0x40, 0x00, 0x00, 0x00, 0x02, 0x00, 0x00, 0x00, 0xff, 0xff, 0xff, 0xff,
  0x78, 0x00, 0x00, 0x00, 0x04, 0x00, 0x04, 0x00, 0x04, 0x00, 0x00, 0x00,
  0x20, 0x00, 0x00, 0x00, 0x73, 0x65, 0x72, 0x76, 0x69, 0x6e, 0x67, 0x5f,
  0x64, 0x65, 0x66, 0x61, 0x75, 0x6c, 0x74, 0x5f, 0x64, 0x65, 0x6e, 0x73,
  0x65, 0x5f, 0x33, 0x30, 0x5f, 0x69, 0x6e, 0x70, 0x75, 0x74, 0x3a, 0x30,
  0x00, 0x00, 0x00, 0x00, 0x02, 0x00, 0x00, 0x00, 0x01, 0x00, 0x00, 0x00,
  0x78, 0x00, 0x00, 0x00, 0x02, 0x00, 0x00, 0x00, 0x20, 0x00, 0x00, 0x00,
  0x04, 0x00, 0x00, 0x00, 0xf4, 0xff, 0xff, 0xff, 0x19, 0x00, 0x00, 0x00,
  0x00, 0x00, 0x00, 0x19, 0x0c, 0x00, 0x0c, 0x00, 0x0b, 0x00, 0x00, 0x00,
  0x00, 0x00, 0x04, 0x00, 0x0c, 0x00, 0x00, 0x00, 0x09, 0x00, 0x00, 0x00,
  0x00, 0x00, 0x00, 0x09
};
